#include "identifier_detect_model_data.h"

alignas(8) const unsigned char g_identifier_detect_model_data[] = {
  0x20, 0x00, 0x00, 0x00, 0x54, 0x46, 0x4c, 0x33, 0x00, 0x00, 0x00, 0x00,
  0x14, 0x00, 0x20, 0x00, 0x1c, 0x00, 0x18, 0x00, 0x14, 0x00, 0x10, 0x00,
  0x0c, 0x00, 0x00, 0x00, 0x08, 0x00, 0x04, 0x00, 0x14, 0x00, 0x00, 0x00,
  0x1c, 0x00, 0x00, 0x00, 0x90, 0x00, 0x00, 0x00, 0xe8, 0x00, 0x00, 0x00,
  0xa8, 0x15, 0x00, 0x00, 0xb8, 0x15, 0x00, 0x00, 0x00, 0x2c, 0x00, 0x00,
  0x03, 0x00, 0x00, 0x00, 0x01, 0x00, 0x00, 0x00, 0x10, 0x00, 0x00, 0x00,
  0x00, 0x00, 0x0a, 0x00, 0x10, 0x00, 0x0c, 0x00, 0x08, 0x00, 0x04, 0x00,
  0x0a, 0x00, 0x00, 0x00, 0x0c, 0x00, 0x00, 0x00, 0x1c, 0x00, 0x00, 0x00,
  0x3c, 0x00, 0x00, 0x00, 0x0f, 0x00, 0x00, 0x00, 0x73, 0x65, 0x72, 0x76,
  0x69, 0x6e, 0x67, 0x5f, 0x64, 0x65, 0x66, 0x61, 0x75, 0x6c, 0x74, 0x00,
  0x01, 0x00, 0x00, 0x00, 0x04, 0x00, 0x00, 0x00, 0x98, 0xff, 0xff, 0xff,
  0x12, 0x00, 0x00, 0x00, 0x04, 0x00, 0x00, 0x00, 0x08, 0x00, 0x00, 0x00,
  0x6f, 0x75, 0x74, 0x70, 0x75, 0x74, 0x5f, 0x30, 0x00, 0x00, 0x00, 0x00,
  0x01, 0x00, 0x00, 0x00, 0x04, 0x00, 0x00, 0x00, 0x3a, 0xea, 0xff, 0xff,
  0x04, 0x00, 0x00, 0x00, 0x05, 0x00, 0x00, 0x00, 0x69, 0x6d, 0x61, 0x67,
  0x65, 0x00, 0x00, 0x00, 0x02, 0x00, 0x00, 0x00, 0x34, 0x00, 0x00, 0x00,
  0x04, 0x00, 0x00, 0x00, 0xdc, 0xff, 0xff, 0xff, 0x15, 0x00, 0x00, 0x00,
  0x04, 0x00, 0x00, 0x00, 0x13, 0x00, 0x00, 0x00, 0x43, 0x4f, 0x4e, 0x56,
  0x45, 0x52, 0x53, 0x49, 0x4f, 0x4e, 0x5f, 0x4d, 0x45, 0x54, 0x41, 0x44,
  0x41, 0x54, 0x41, 0x00, 0x08, 0x00, 0x0c, 0x00, 0x08, 0x00, 0x04, 0x00,
  0x08, 0x00, 0x00, 0x00, 0x14, 0x00, 0x00, 0x00, 0x04, 0x00, 0x00, 0x00,
  0x13, 0x00, 0x00, 0x00, 0x6d, 0x69, 0x6e, 0x5f, 0x72, 0x75, 0x6e, 0x74,
  0x69, 0x6d, 0x65, 0x5f, 0x76, 0x65, 0x72, 0x73, 0x69, 0x6f, 0x6e, 0x00,
  0x16, 0x00, 0x00, 0x00, 0xbc, 0x14, 0x00, 0x00, 0xb4, 0x14, 0x00, 0x00,
  0x9c, 0x14, 0x00, 0x00, 0x84, 0x14, 0x00, 0x00, 0x44, 0x14, 0x00, 0x00,
  0xd4, 0x13, 0x00, 0x00, 0x44, 0x06, 0x00, 0x00, 0xf4, 0x05, 0x00, 0x00,
  0x64, 0x01, 0x00, 0x00, 0x34, 0x01, 0x00, 0x00, 0xdc, 0x00, 0x00, 0x00,
  0xd4, 0x00, 0x00, 0x00, 0xcc, 0x00, 0x00, 0x00, 0xc4, 0x00, 0x00, 0x00,
  0xbc, 0x00, 0x00, 0x00, 0xb4, 0x00, 0x00, 0x00, 0xac, 0x00, 0x00, 0x00,
  0xa4, 0x00, 0x00, 0x00, 0x9c, 0x00, 0x00, 0x00, 0x94, 0x00, 0x00, 0x00,
  0x74, 0x00, 0x00, 0x00, 0x04, 0x00, 0x00, 0x00, 0x06, 0xeb, 0xff, 0xff,
  0x04, 0x00, 0x00, 0x00, 0x60, 0x00, 0x00, 0x00, 0x0c, 0x00, 0x00, 0x00,
  0x08, 0x00, 0x0e, 0x00, 0x08, 0x00, 0x04, 0x00, 0x08, 0x00, 0x00, 0x00,
  0x10, 0x00, 0x00, 0x00, 0x28, 0x00, 0x00, 0x00, 0x00, 0x00, 0x06, 0x00,
  0x08, 0x00, 0x04, 0x00, 0x06, 0x00, 0x00, 0x00, 0x04, 0x00, 0x00, 0x00,
  0x01, 0x00, 0x00, 0x00, 0xeb, 0x03, 0x00, 0x00, 0x0c, 0x00, 0x18, 0x00,
  0x14, 0x00, 0x10, 0x00, 0x0c, 0x00, 0x04, 0x00, 0x0c, 0x00, 0x00, 0x00,
  0xbf, 0xa0, 0xf7, 0x89, 0x5a, 0x9f, 0x92, 0x63, 0x02, 0x00, 0x00, 0x00,
  0x02, 0x00, 0x00, 0x00, 0x04, 0x00, 0x00, 0x00, 0x06, 0x00, 0x00, 0x00,
  0x32, 0x2e, 0x32, 0x31, 0x2e, 0x30, 0x00, 0x00, 0x72, 0xeb, 0xff, 0xff,
  0x04, 0x00, 0x00, 0x00, 0x10, 0x00, 0x00, 0x00, 0x31, 0x2e, 0x31, 0x34,
  0x2e, 0x30, 0x00, 0x00, 0x00, 0x00, 0x00, 0x00, 0x00, 0x00, 0x00, 0x00,
  0xcc, 0xd6, 0xff, 0xff, 0xd0, 0xd6, 0xff, 0xff, 0xd4, 0xd6, 0xff, 0xff,
  0xd8, 0xd6, 0xff, 0xff, 0xdc, 0xd6, 0xff, 0xff, 0xe0, 0xd6, 0xff, 0xff,
  0xe4, 0xd6, 0xff, 0xff, 0xe8, 0xd6, 0xff, 0xff, 0xec, 0xd6, 0xff, 0xff,
  0xb2, 0xeb, 0xff, 0xff, 0x04, 0x00, 0x00, 0x00, 0x48, 0x00, 0x00, 0x00,
  0xf3, 0x07, 0x20, 0xe1, 0xb6, 0xcf, 0x81, 0x6d, 0xd1, 0x7a, 0x4f, 0x34,
  0xb3, 0x4d, 0xba, 0x60, 0x7f, 0xe3, 0x81, 0x5a, 0xb5, 0x63, 0x94, 0xe7,
  0x08, 0x05, 0x5c, 0xef, 0x54, 0x97, 0xb6, 0xbc, 0x81, 0x75, 0x66, 0x59,
  0x2a, 0xae, 0x0e, 0x48, 0x86, 0xb0, 0x7f, 0x63, 0x5d, 0x41, 0x56, 0xa6,
  0x7f, 0x3d, 0x91, 0xd6, 0xf0, 0x0e, 0x83, 0x9a, 0x93, 0x81, 0x0d, 0xf8,
  0x46, 0x11, 0xed, 0x7f, 0x93, 0xa3, 0xff, 0x42, 0xd6, 0x1d, 0xdf, 0x70,
  0x06, 0xec, 0xff, 0xff, 0x04, 0x00, 0x00, 0x00, 0x20, 0x00, 0x00, 0x00,
  0x9f, 0xfc, 0xff, 0xff, 0x6f, 0xf8, 0xff, 0xff, 0x22, 0x02, 0x00, 0x00,
  0x9c, 0xfd, 0xff, 0xff, 0x72, 0xf8, 0xff, 0xff, 0x4f, 0x05, 0x00, 0x00,
  0xd6, 0xfb, 0xff, 0xff, 0x61, 0xfc, 0xff, 0xff, 0x32, 0xec, 0xff, 0xff,
  0x04, 0x00, 0x00, 0x00, 0x80, 0x04, 0x00, 0x00, 0x97, 0xa0, 0x3d, 0x5d,
  0x29, 0x44, 0xe8, 0xf7, 0xdf, 0x5d, 0x09, 0xaa, 0x54, 0x40, 0xc8, 0x17,
  0xb7, 0x41, 0xfa, 0x96, 0x2c, 0x67, 0x8d, 0x49, 0x76, 0x0f, 0xf9, 0xa9,
  0x97, 0xb3, 0xcf, 0xc2, 0x8f, 0x1a, 0x16, 0x95, 0xce, 0x6d, 0xdd, 0x14,
  0x9c, 0xc1, 0xcf, 0x32, 0x2d, 0xe9, 0x3c, 0x88, 0x52, 0x87, 0x85, 0x2b,
  0xc8, 0xfd, 0xb7, 0xcd, 0xf9, 0xe6, 0xd8, 0xcf, 0xb5, 0xa7, 0xae, 0x81,
  0xcf, 0x64, 0xf0, 0x18, 0x3b, 0x8c, 0x2b, 0xc9, 0xa7, 0x06, 0xb3, 0xae,
  0xae, 0x4c, 0xad, 0x9e, 0x54, 0x44, 0x0c, 0x1e, 0x1d, 0xde, 0xd4, 0xc0,
  0x3a, 0x30, 0x96, 0x81, 0x1a, 0xff, 0xb4, 0xef, 0xbb, 0x51, 0x03, 0x83,
  0x57, 0xa2, 0xf4, 0x95, 0x5e, 0xef, 0xf7, 0x93, 0x9b, 0x95, 0x10, 0x50,
  0x5b, 0xd9, 0x18, 0xec, 0x1a, 0xe3, 0xa5, 0xe2, 0xf8, 0xc4, 0xd6, 0x38,
  0xf1, 0xb2, 0xac, 0x17, 0x21, 0xc4, 0x00, 0x9b, 0x32, 0xbb, 0x1c, 0x36,
  0xae, 0x09, 0x2c, 0x3c, 0x59, 0xda, 0xbe, 0x2f, 0xe8, 0x59, 0x0b, 0xf9,
  0xbb, 0x5f, 0xbc, 0x7f, 0xd2, 0xfb, 0xb1, 0xd1, 0xcc, 0x2f, 0xea, 0x7d,
  0x1f, 0x03, 0x02, 0xbb, 0x64, 0x49, 0xa9, 0xe7, 0x58, 0xd1, 0x58, 0x3e,
  0xc0, 0x60, 0xf6, 0x59, 0xa7, 0xb7, 0xa6, 0xd2, 0xe5, 0x14, 0xf3, 0xc1,
  0x94, 0xf6, 0x16, 0x05, 0x54, 0xa3, 0x25, 0x2a, 0x33, 0x32, 0x00, 0xc1,
  0x99, 0xf5, 0x46, 0xf2, 0x63, 0xee, 0xaf, 0x88, 0xcc, 0x0f, 0xdd, 0x71,
  0xcd, 0xd2, 0xc5, 0x8d, 0x9b, 0xf6, 0xd1, 0x31, 0xb7, 0xe2, 0x4e, 0xd7,
  0x05, 0x64, 0x27, 0x37, 0x79, 0x41, 0xbe, 0xe2, 0xf9, 0x18, 0x18, 0x70,
  0x00, 0x9b, 0x7f, 0x57, 0x49, 0x87, 0xe6, 0x61, 0x3a, 0x56, 0x44, 0xc9,
  0x95, 0x94, 0xd6, 0x82, 0xb0, 0xd7, 0x27, 0xf0, 0x4f, 0x1f, 0x03, 0x40,
  0x0d, 0xf7, 0x0f, 0x25, 0x17, 0x66, 0x73, 0x08, 0x1b, 0x40, 0xbb, 0xe3,
  0xfb, 0x40, 0xc3, 0xf4, 0x29, 0x35, 0x44, 0xe4, 0xf5, 0x86, 0x5e, 0x8b,
  0x1c, 0x08, 0x26, 0xb2, 0x43, 0xbe, 0xb1, 0x30, 0xc8, 0x8e, 0x2f, 0xbb,
  0x1d, 0x50, 0x4e, 0xf9, 0xa0, 0xde, 0x6a, 0x9f, 0x68, 0x69, 0x1c, 0x5f,
  0x0c, 0x6e, 0xff, 0x40, 0x4d, 0x1e, 0x63, 0xe9, 0x03, 0xdd, 0x55, 0xaf,
  0x06, 0x00, 0x3b, 0x10, 0x38, 0xca, 0x8d, 0x81, 0xdc, 0xd5, 0x4c, 0x2b,
  0x40, 0xa8, 0x23, 0x3a, 0x1c, 0xf9, 0xf7, 0xfb, 0x02, 0xdd, 0xee, 0x6d,
  0x4e, 0x21, 0x27, 0xe4, 0x1d, 0xe6, 0x04, 0xcd, 0x37, 0x3b, 0x69, 0x4e,
  0xbb, 0x01, 0xfe, 0xe8, 0x6a, 0x38, 0x1e, 0xad, 0xb6, 0xfe, 0xe0, 0x62,
  0xf9, 0xa4, 0x9a, 0xe7, 0xd4, 0xe5, 0x72, 0x34, 0xd9, 0x3b, 0x15, 0xaa,
  0x3e, 0xc1, 0x64, 0xf3, 0x6a, 0xe7, 0x16, 0x44, 0x27, 0x02, 0xfe, 0x57,
  0xf1, 0x40, 0x48, 0xcc, 0xa2, 0xb9, 0xea, 0xad, 0xb3, 0xc4, 0xf2, 0xa8,
  0x12, 0xe3, 0x1b, 0xcc, 0xe5, 0x26, 0xaf, 0xac, 0x17, 0xaf, 0x74, 0x7f,
  0x6a, 0x1b, 0xb8, 0xea, 0x05, 0x30, 0x60, 0xb9, 0x1b, 0x04, 0xb5, 0xd1,
  0xb7, 0x59, 0x77, 0x58, 0x75, 0x1e, 0xc6, 0x35, 0xb5, 0xc1, 0x78, 0xd9,
  0xd3, 0x53, 0x77, 0xc2, 0x7b, 0x9a, 0xdc, 0xfe, 0x35, 0x7c, 0xdc, 0xe9,
  0x28, 0xe6, 0x1c, 0x59, 0x96, 0x70, 0xf0, 0x5c, 0x7d, 0xa1, 0xf2, 0xb2,
  0x92, 0xa7, 0x63, 0x89, 0xe7, 0x94, 0x35, 0xf4, 0x64, 0x3f, 0x98, 0x63,
  0xae, 0x16, 0x41, 0x5b, 0x97, 0x9b, 0x26, 0xf0, 0xad, 0x81, 0x3c, 0x4c,
  0x0f, 0xc2, 0x83, 0x90, 0xe4, 0xc6, 0x19, 0x56, 0x25, 0xd5, 0x46, 0x82,
  0xc8, 0xa8, 0x31, 0x66, 0x8f, 0x1a, 0x9f, 0x2b, 0x9d, 0x27, 0xea, 0xc9,
  0x08, 0x0f, 0x2d, 0xc3, 0xd3, 0x24, 0xf1, 0x60, 0x52, 0x4a, 0x1f, 0xbf,
  0xc9, 0xbe, 0x35, 0xf3, 0x91, 0x36, 0xf9, 0x42, 0x15, 0x67, 0x2e, 0xb3,
  0xa2, 0x69, 0xb7, 0x03, 0x91, 0xb6, 0x7f, 0xa8, 0x11, 0x2a, 0x0f, 0x66,
  0x0f, 0x04, 0xfe, 0x1b, 0x4e, 0x8d, 0x44, 0xa8, 0x5c, 0xce, 0x66, 0xf1,
  0x69, 0x0e, 0xaf, 0x52, 0xd2, 0x59, 0x15, 0xfe, 0x54, 0x01, 0x9a, 0xae,
  0x12, 0x54, 0x7c, 0x48, 0xe5, 0x12, 0x56, 0x4d, 0x33, 0xcc, 0x11, 0xd1,
  0xe4, 0x5b, 0x4f, 0xb7, 0xef, 0xc1, 0x1c, 0x05, 0x4f, 0x18, 0x19, 0x23,
  0xa0, 0xef, 0x63, 0x4e, 0xff, 0xff, 0x09, 0xb9, 0xcc, 0xdd, 0xf5, 0x0a,
  0x23, 0x9c, 0x9f, 0xfb, 0x34, 0x41, 0x33, 0xa9, 0x38, 0x39, 0xa0, 0xde,
  0xd4, 0x59, 0xaa, 0x2c, 0xa2, 0x81, 0x36, 0xc4, 0x02, 0x1f, 0x02, 0x26,
  0xb2, 0x02, 0xa3, 0xc6, 0xc0, 0xe6, 0x76, 0x16, 0x1c, 0x0e, 0x2d, 0xa4,
  0xe5, 0xc2, 0xbb, 0x5d, 0x4e, 0x65, 0x8a, 0xe4, 0x51, 0x8d, 0xc0, 0x0e,
  0x31, 0x45, 0x61, 0x50, 0xb1, 0x6b, 0x61, 0x32, 0x54, 0x24, 0x89, 0xa8,
  0x09, 0xcc, 0xe5, 0xb4, 0x08, 0xc7, 0x43, 0x60, 0xe2, 0x93, 0x17, 0xea,
  0x95, 0xb7, 0x27, 0xa2, 0x71, 0xc2, 0x09, 0xc4, 0x57, 0xcc, 0xb6, 0x75,
  0xba, 0x94, 0x52, 0x53, 0x2b, 0x0e, 0xb1, 0xd1, 0x8e, 0x5a, 0xe2, 0xc5,
  0x35, 0x74, 0x45, 0x3f, 0x3d, 0xb4, 0x7f, 0x7a, 0x19, 0xac, 0x37, 0x22,
  0xf4, 0x6a, 0xc4, 0xeb, 0x4b, 0x3f, 0xb6, 0xbd, 0x1a, 0x76, 0xd7, 0x81,
  0x1c, 0x7a, 0x00, 0x2f, 0x4e, 0xd8, 0xbc, 0x1c, 0xfe, 0x57, 0xf3, 0xa5,
  0x1d, 0x5e, 0xb6, 0x8b, 0x1c, 0x6f, 0xf2, 0xff, 0xac, 0xe8, 0x1d, 0xcf,
  0x89, 0x9c, 0x5c, 0x25, 0x5e, 0x70, 0x15, 0x4c, 0xa5, 0x41, 0x8d, 0xf5,
  0xae, 0xbb, 0x52, 0xa5, 0x97, 0xf2, 0xe8, 0xf4, 0xbb, 0x93, 0x0d, 0xf6,
  0x90, 0xcf, 0xd2, 0x40, 0xdc, 0x55, 0x9d, 0xf1, 0x09, 0xa8, 0xc5, 0x36,
  0xb1, 0xb4, 0xe3, 0x01, 0xd6, 0x5e, 0x3a, 0xc0, 0x67, 0xda, 0xb1, 0x11,
  0xd6, 0x7f, 0x5c, 0xd1, 0xd7, 0xd0, 0xe3, 0x91, 0x76, 0x70, 0x40, 0x5f,
  0xa3, 0xba, 0xf4, 0xc4, 0x13, 0x1e, 0xc4, 0x39, 0x04, 0xf7, 0xe0, 0xdc,
  0xfc, 0xe1, 0x43, 0x9f, 0xff, 0xf0, 0x16, 0xb0, 0xbb, 0x9a, 0x40, 0xad,
  0xf3, 0x11, 0x14, 0xed, 0x05, 0xf1, 0x2d, 0xc3, 0xb2, 0x6c, 0x21, 0x78,
  0x68, 0x08, 0x98, 0x50, 0x41, 0xea, 0xc9, 0x37, 0x05, 0x42, 0xeb, 0xda,
  0xe0, 0xd6, 0xcd, 0x2e, 0xad, 0x37, 0x45, 0xa6, 0x35, 0x3c, 0xfb, 0xa2,
  0x0e, 0x00, 0x4d, 0xe0, 0xb8, 0x8c, 0x9f, 0x87, 0xba, 0x8e, 0xaa, 0xef,
  0x9f, 0xc1, 0x69, 0xc4, 0x4a, 0x54, 0xe3, 0xa0, 0x34, 0x13, 0x7e, 0x33,
  0xe0, 0xa7, 0xf2, 0xd1, 0x08, 0xe1, 0x49, 0x4a, 0x68, 0x1b, 0xa8, 0xdf,
  0x68, 0x8a, 0x13, 0xe6, 0x68, 0x13, 0xa6, 0xf4, 0x4e, 0x23, 0xe5, 0x8a,
  0xba, 0x6e, 0x8b, 0xb8, 0x3d, 0x5c, 0x14, 0xc2, 0xd2, 0xae, 0x48, 0x7f,
  0x3b, 0x73, 0xe4, 0xc9, 0xd7, 0xfa, 0x87, 0x02, 0xd5, 0x08, 0xb4, 0xab,
  0x69, 0x0f, 0x5a, 0x61, 0x6f, 0x66, 0x6d, 0xbc, 0xae, 0xc5, 0xa6, 0xda,
  0x17, 0x99, 0xe6, 0x18, 0xde, 0x1f, 0x24, 0xe4, 0xae, 0x93, 0x64, 0xfb,
  0x09, 0xce, 0x91, 0x81, 0xb1, 0xe4, 0x2b, 0x13, 0x43, 0x3b, 0x22, 0x99,
  0xa0, 0xff, 0x5c, 0x3c, 0x4b, 0x5e, 0x18, 0x34, 0xe5, 0x3d, 0x64, 0xef,
  0x9b, 0x5f, 0x36, 0x16, 0x7b, 0xe8, 0x99, 0xec, 0xb2, 0x8b, 0x37, 0x41,
  0x35, 0x67, 0x78, 0x4e, 0xb3, 0xdc, 0x57, 0x0c, 0xec, 0xa9, 0xf4, 0xb8,
  0xb3, 0x88, 0x9a, 0x2a, 0xd2, 0x2b, 0xcb, 0x4b, 0x81, 0x2f, 0x40, 0x8c,
  0xd1, 0x2b, 0xcb, 0x85, 0x1e, 0x3d, 0x54, 0x3e, 0x10, 0xd1, 0x99, 0x6a,
  0x0c, 0x8a, 0xa2, 0xd8, 0x37, 0x0d, 0xbf, 0x86, 0xc5, 0xc7, 0x1d, 0x5f,
  0x14, 0x8b, 0x38, 0x20, 0x19, 0x4f, 0x8b, 0x47, 0xe9, 0xfc, 0x3f, 0xc6,
  0x90, 0x19, 0xa4, 0x59, 0xbc, 0xa2, 0xda, 0xa2, 0x6c, 0x90, 0xcb, 0x6e,
  0x95, 0xdc, 0xf7, 0xfb, 0x4e, 0x0f, 0x5e, 0xa6, 0x4c, 0x38, 0x81, 0xbd,
  0xef, 0xa6, 0x03, 0x1b, 0x94, 0x32, 0x9e, 0xf7, 0x21, 0x60, 0x9c, 0xe9,
  0x43, 0x18, 0x30, 0xc6, 0x52, 0x55, 0x40, 0xa4, 0x4e, 0xbc, 0xe5, 0x02,
  0xe9, 0x36, 0x9c, 0xfa, 0x95, 0x42, 0x96, 0x6d, 0x5c, 0x14, 0x9c, 0x95,
  0x93, 0xdc, 0x8b, 0xb9, 0x55, 0x6b, 0xee, 0xae, 0x43, 0x1b, 0xfd, 0x4f,
  0x1f, 0xa8, 0x44, 0x66, 0xf2, 0x31, 0xef, 0xf3, 0x66, 0x14, 0x1d, 0x6c,
  0x1d, 0x34, 0x99, 0x28, 0xae, 0xe9, 0x19, 0x37, 0xbe, 0xf0, 0xff, 0xff,
  0x04, 0x00, 0x00, 0x00, 0x40, 0x00, 0x00, 0x00, 0xa7, 0x09, 0x00, 0x00,
  0xad, 0x14, 0x00, 0x00, 0x7c, 0x1d, 0x00, 0x00, 0xb6, 0x07, 0x00, 0x00,
  0x52, 0xfc, 0xff, 0xff, 0x11, 0x17, 0x00, 0x00, 0x07, 0x04, 0x00, 0x00,
  0x47, 0x02, 0x00, 0x00, 0xb2, 0xf8, 0xff, 0xff, 0x35, 0x11, 0x00, 0x00,
  0x23, 0x0c, 0x00, 0x00, 0x1a, 0x25, 0x00, 0x00, 0x5b, 0x02, 0x00, 0x00,
  0x82, 0xfc, 0xff, 0xff, 0x5f, 0xf4, 0xff, 0xff, 0x20, 0x00, 0x00, 0x00,
  0x0a, 0xf1, 0xff, 0xff, 0x04, 0x00, 0x00, 0x00, 0x80, 0x0d, 0x00, 0x00,
  0xb0, 0x10, 0xfe, 0xcf, 0x0c, 0xf7, 0x41, 0x15, 0xd6, 0xf3, 0x0a, 0x35,
  0x81, 0xc7, 0x13, 0x3a, 0x49, 0xe8, 0x85, 0x36, 0xa8, 0x86, 0x0b, 0xe9,
  0x5f, 0x86, 0xa7, 0x00, 0xb5, 0xde, 0x30, 0xcc, 0x02, 0xf8, 0x2b, 0xdb,
  0x9b, 0xdb, 0x62, 0xbc, 0x61, 0x2f, 0x11, 0x07, 0xb9, 0x4a, 0xc8, 0x2d,
  0x2d, 0xb2, 0x0a, 0xfa, 0xde, 0x3f, 0x62, 0xff, 0xd1, 0x0f, 0xa6, 0xd7,
  0x82, 0x4d, 0xc3, 0x32, 0xbd, 0x45, 0xdb, 0x17, 0x1f, 0x29, 0x5a, 0x41,
  0x11, 0x9e, 0xae, 0xc0, 0x2d, 0xf5, 0xb2, 0xcd, 0x00, 0xea, 0xb9, 0xc1,
  0x18, 0x9c, 0x2d, 0x15, 0xc6, 0xd8, 0x43, 0xbd, 0xb9, 0xe0, 0xf3, 0x33,
  0x44, 0xb8, 0x8c, 0x1d, 0x39, 0xd2, 0x22, 0xe0, 0xa9, 0xfd, 0xaa, 0x2f,
  0x93, 0x57, 0x22, 0xf4, 0xbe, 0xa5, 0xfd, 0x41, 0xae, 0x3b, 0x32, 0xe7,
  0xd1, 0x9d, 0x23, 0xd1, 0x36, 0x11, 0x1f, 0x57, 0xb0, 0x4d, 0x97, 0x10,
  0xd5, 0x84, 0x20, 0x1f, 0xdb, 0xf0, 0xcf, 0x02, 0x06, 0x1e, 0x16, 0x58,
  0xf2, 0x08, 0xc3, 0x32, 0x91, 0xcb, 0x6c, 0x50, 0xe0, 0x9f, 0x14, 0x21,
  0x3c, 0x20, 0xe4, 0x4f, 0xf1, 0x68, 0x0a, 0x51, 0x59, 0x2a, 0x3c, 0xbe,
  0x48, 0xc2, 0xed, 0x1d, 0x73, 0xb2, 0xfd, 0x30, 0x78, 0xbf, 0x35, 0x26,
  0xd1, 0x0b, 0x24, 0xe3, 0xa7, 0x7d, 0x0a, 0x54, 0xef, 0x13, 0x3f, 0x45,
  0x5d, 0xbb, 0x34, 0x9d, 0xf1, 0xae, 0x58, 0xc8, 0xcd, 0x0f, 0x4f, 0x1b,
  0xe7, 0xea, 0x4f, 0x46, 0x54, 0xd5, 0xfe, 0x06, 0x6f, 0xc1, 0xa3, 0xb3,
  0x66, 0xa4, 0xb7, 0xfe, 0x6f, 0xe1, 0x96, 0x45, 0xb2, 0x67, 0x5b, 0xd7,
  0x9a, 0x30, 0x0b, 0xcb, 0x10, 0x5e, 0x1d, 0xfc, 0xc9, 0x19, 0xed, 0x23,
  0x70, 0x77, 0xbf, 0x00, 0xbb, 0xdd, 0xd8, 0xb1, 0x60, 0x3b, 0x7f, 0xdd,
  0xfd, 0x51, 0x3c, 0xf4, 0x04, 0x02, 0x35, 0x39, 0xf0, 0xe4, 0xd9, 0xe2,
  0x20, 0x6b, 0x33, 0x21, 0x35, 0xfb, 0xab, 0xa6, 0x36, 0xc2, 0x1d, 0xfa,
  0xb9, 0xc6, 0xbd, 0xe1, 0xa0, 0xe1, 0x67, 0xa9, 0xfa, 0x04, 0xcb, 0xd6,
  0x12, 0x5b, 0x81, 0xd9, 0x18, 0xb3, 0x27, 0x1f, 0xc8, 0xe2, 0xe8, 0x9a,
  0xe4, 0xa8, 0x58, 0x19, 0x00, 0x11, 0xab, 0xf1, 0xee, 0x19, 0x19, 0x44,
  0x0d, 0x81, 0xb2, 0xc7, 0x30, 0x43, 0x9d, 0x10, 0xce, 0xf1, 0xe9, 0xf3,
  0x19, 0x37, 0xb7, 0xec, 0xaa, 0xc6, 0x01, 0x9e, 0xf4, 0xab, 0xcd, 0xec,
  0xed, 0x2f, 0xc3, 0x25, 0x2e, 0x45, 0x64, 0x45, 0xf1, 0xf4, 0xe9, 0x34,
  0xd4, 0x19, 0xae, 0xd0, 0xd4, 0x50, 0x11, 0x48, 0xb2, 0xfe, 0xe2, 0x3c,
  0xf5, 0xac, 0x57, 0xd8, 0xe7, 0xa7, 0x07, 0x45, 0x51, 0xe8, 0x99, 0x62,
  0xd4, 0xd8, 0x63, 0xd2, 0xf6, 0xff, 0xa8, 0xb6, 0xa2, 0x0f, 0x32, 0xe3,
  0xc9, 0xb6, 0xf3, 0xfb, 0xdb, 0xe8, 0x1c, 0x01, 0x5f, 0x93, 0x8e, 0xd3,
  0x8e, 0xfd, 0x37, 0x5f, 0x14, 0x59, 0x8d, 0x45, 0xcb, 0x4c, 0xa7, 0xb1,
  0xd0, 0x3a, 0xd7, 0x3e, 0x3b, 0x29, 0xef, 0xed, 0xc6, 0x33, 0x9f, 0x36,
  0x60, 0xef, 0x3d, 0xf6, 0x14, 0xc9, 0xe7, 0xf7, 0x96, 0xd1, 0x42, 0xdb,
  0x6e, 0x33, 0x53, 0x54, 0x63, 0xf4, 0xcd, 0xf4, 0xf9, 0x54, 0xd1, 0x6f,
  0xf8, 0xf8, 0x19, 0xe0, 0x3e, 0xff, 0x27, 0x37, 0x5a, 0x1b, 0xbe, 0xbf,
  0x13, 0xf3, 0x7e, 0xf4, 0x4a, 0x64, 0xc2, 0xea, 0x1f, 0xff, 0x7f, 0x6d,
  0xbc, 0x07, 0x27, 0x1c, 0xae, 0x3e, 0x37, 0x64, 0x62, 0xc6, 0xcc, 0xae,
  0xe8, 0x33, 0xc3, 0x34, 0x36, 0x77, 0x65, 0x10, 0xdf, 0xe3, 0x1f, 0xcf,
  0x55, 0xef, 0x27, 0x6b, 0xb1, 0xca, 0xc0, 0xcb, 0x50, 0xe7, 0x4c, 0xcf,
  0x65, 0x23, 0x69, 0x1f, 0x75, 0xcb, 0x65, 0x07, 0xbf, 0x1d, 0x05, 0xff,
  0x52, 0x78, 0x98, 0x1b, 0xbe, 0x7b, 0x7c, 0xf1, 0xc5, 0x1b, 0xa1, 0xa0,
  0x3a, 0x50, 0x2c, 0xda, 0xba, 0x5d, 0x25, 0xa9, 0xba, 0x04, 0x49, 0x4c,
  0x51, 0x46, 0xe2, 0xd0, 0x0e, 0xe9, 0xff, 0x3b, 0x7a, 0xf3, 0x0e, 0xde,
  0x6c, 0xc3, 0xab, 0xb2, 0x4d, 0xf3, 0xca, 0x2d, 0x28, 0x1b, 0x29, 0x66,
  0xcd, 0xd0, 0x9b, 0xe0, 0x5a, 0x1f, 0x7a, 0x0c, 0x57, 0xed, 0x59, 0x49,
  0xa4, 0xbc, 0x8f, 0xd2, 0x46, 0xd7, 0x45, 0x29, 0x63, 0x11, 0x9a, 0x25,
  0x9c, 0x2e, 0xb1, 0x64, 0x3a, 0xb4, 0xa8, 0xf2, 0xd4, 0x8f, 0xf8, 0x10,
  0xea, 0x3b, 0x14, 0x19, 0xea, 0x23, 0x43, 0x1e, 0x0b, 0xce, 0xbd, 0x58,
  0xa5, 0x25, 0x23, 0x4c, 0x58, 0xd6, 0xfa, 0x9f, 0xce, 0xed, 0x47, 0x41,
  0x40, 0xac, 0xff, 0xd9, 0xca, 0x2a, 0x27, 0x28, 0x3b, 0x26, 0xed, 0x1d,
  0xb8, 0x51, 0x37, 0x3a, 0xd0, 0xcf, 0x11, 0x51, 0x39, 0xb1, 0x16, 0x3c,
  0xf4, 0x15, 0x9a, 0xc7, 0x3d, 0xce, 0xea, 0xb9, 0xe7, 0x31, 0xa3, 0xa8,
  0xa5, 0xed, 0xb4, 0xf1, 0xfd, 0xb5, 0xfa, 0xdb, 0x84, 0x65, 0xd8, 0xd2,
  0xb9, 0x96, 0xf8, 0xf2, 0xb7, 0x08, 0x45, 0x57, 0xc1, 0x8a, 0xf9, 0xb8,
  0xc2, 0xae, 0x15, 0x1c, 0xf9, 0xc1, 0x06, 0x19, 0x30, 0x85, 0xc2, 0xf7,
  0xe6, 0xfa, 0xbb, 0x89, 0x81, 0xd8, 0x11, 0x1c, 0x9f, 0xf2, 0x30, 0xe1,
  0xab, 0xb4, 0xfa, 0x0f, 0x2c, 0x27, 0x28, 0x2b, 0xb5, 0x11, 0x4f, 0x3e,
  0x9c, 0xf7, 0xaf, 0x03, 0xf4, 0xc6, 0x4a, 0x28, 0x51, 0x9e, 0x19, 0x74,
  0xca, 0xd8, 0x9a, 0x87, 0xdc, 0x29, 0xff, 0x88, 0xaf, 0x5e, 0xf0, 0xc0,
  0xcb, 0x63, 0xd1, 0x1f, 0xa4, 0x5d, 0xd4, 0xe5, 0x47, 0xa3, 0x99, 0xff,
  0xaa, 0x79, 0x4f, 0xcd, 0xad, 0x2c, 0x2b, 0x45, 0xd5, 0x5d, 0x20, 0xcb,
  0x5c, 0x90, 0x4b, 0x90, 0x30, 0xdf, 0xca, 0xfd, 0xc1, 0xeb, 0x9b, 0xe8,
  0x9e, 0x64, 0xfd, 0xbf, 0x58, 0x6a, 0xf4, 0x94, 0xa4, 0x48, 0x4e, 0x96,
  0xed, 0xa4, 0x60, 0x8e, 0x9e, 0x47, 0x6d, 0x9d, 0x01, 0xdf, 0xeb, 0xab,
  0x7a, 0x43, 0x15, 0xc1, 0x09, 0x6e, 0xea, 0x97, 0xc7, 0x37, 0x72, 0x3d,
  0xa4, 0x15, 0x3b, 0xe9, 0xd1, 0x7a, 0xf1, 0xf9, 0x28, 0xe2, 0x71, 0xb3,
  0x61, 0xff, 0xf0, 0xd6, 0xae, 0x8d, 0xd2, 0x68, 0x9e, 0x69, 0x32, 0x8b,
  0x64, 0x74, 0x71, 0x48, 0x17, 0x75, 0x7b, 0xd5, 0xd9, 0x8c, 0xd9, 0x5f,
  0x08, 0x81, 0x29, 0x4a, 0x53, 0x2f, 0x28, 0xb7, 0x20, 0xdd, 0x74, 0x9c,
  0x42, 0x5e, 0x07, 0x2f, 0xc6, 0x6e, 0x44, 0xfc, 0x34, 0x60, 0x5b, 0xed,
  0xfd, 0x00, 0xca, 0xf0, 0xf6, 0x24, 0xfe, 0xd3, 0x3b, 0x0d, 0xf0, 0x3b,
  0x20, 0xfd, 0xce, 0x37, 0xec, 0x3a, 0xf6, 0x21, 0x76, 0x62, 0xe3, 0xff,
  0x2a, 0x0c, 0xee, 0x11, 0x1d, 0xfe, 0x3d, 0xe2, 0x29, 0xe1, 0x22, 0x08,
  0x1b, 0x02, 0x1d, 0x04, 0xf3, 0x2e, 0x37, 0xfb, 0x58, 0x35, 0xf4, 0x5c,
  0x64, 0xac, 0x1c, 0x40, 0x33, 0xe6, 0x03, 0x4c, 0x57, 0x4b, 0x23, 0x13,
  0x18, 0x16, 0x4b, 0x42, 0xe7, 0xcf, 0xb5, 0x38, 0xed, 0xcd, 0xeb, 0xe4,
  0x31, 0x03, 0xec, 0xee, 0x0c, 0x33, 0x16, 0xd9, 0xe9, 0x54, 0xea, 0x57,
  0xc9, 0x45, 0xf8, 0xaa, 0xab, 0x6a, 0x00, 0xcd, 0xd1, 0x77, 0xf8, 0x26,
  0x20, 0x57, 0x4e, 0xa8, 0x38, 0xbd, 0x7f, 0x5a, 0x21, 0xc4, 0xa9, 0xff,
  0x2e, 0xcc, 0xda, 0x64, 0x14, 0xdc, 0xe5, 0xda, 0x38, 0x4a, 0xc5, 0x23,
  0xe6, 0x35, 0x43, 0xd0, 0x2e, 0x5a, 0xc2, 0x4e, 0xf7, 0x07, 0xfa, 0x3f,
  0x03, 0xba, 0x07, 0xaf, 0xa8, 0x9b, 0xb9, 0x15, 0xd1, 0x94, 0x94, 0x99,
  0x26, 0x5c, 0xdd, 0x2c, 0xd9, 0xb4, 0x85, 0xc2, 0xed, 0x0b, 0xff, 0xcc,
  0xdb, 0x09, 0x4e, 0xd3, 0x99, 0xd3, 0x4d, 0xb7, 0xd9, 0xa6, 0xa8, 0xb3,
  0x0a, 0x9f, 0xab, 0xc1, 0xda, 0x81, 0xa4, 0xb5, 0x00, 0x29, 0x49, 0x55,
  0xe3, 0xd2, 0xdb, 0x19, 0xd8, 0xb7, 0xaa, 0x32, 0x4c, 0x31, 0xca, 0xfe,
  0xe1, 0x27, 0x2c, 0x24, 0x29, 0xa2, 0x20, 0xce, 0x35, 0xed, 0x1c, 0x21,
  0x07, 0xd0, 0xcb, 0xfe, 0x13, 0x1a, 0x0e, 0x1f, 0x4d, 0xbf, 0x92, 0xc7,
  0xe6, 0x10, 0xbc, 0x34, 0x4a, 0xbb, 0x4c, 0xad, 0xe1, 0x62, 0xeb, 0x4b,
  0xb0, 0x4f, 0xb6, 0x31, 0x42, 0xd6, 0xda, 0x2d, 0x1a, 0xa8, 0xc1, 0xa8,
  0xd4, 0xd4, 0xf7, 0x46, 0x2d, 0xfd, 0x2a, 0x42, 0xc0, 0xe1, 0x19, 0x37,
  0xde, 0x31, 0xbc, 0xc9, 0xa1, 0xe7, 0x28, 0xd0, 0xdd, 0xe9, 0x14, 0x61,
  0xd9, 0xda, 0xc5, 0xf0, 0x1d, 0xf3, 0xa4, 0xf2, 0xe9, 0x05, 0xb0, 0x58,
  0xcd, 0xfb, 0x39, 0x2f, 0xfe, 0xda, 0xf2, 0x55, 0x39, 0xd8, 0x43, 0x1d,
  0xef, 0x45, 0xd2, 0xee, 0xc9, 0x4e, 0x32, 0x2a, 0xcc, 0x51, 0x22, 0x03,
  0xf2, 0x4f, 0x5f, 0xe8, 0xb5, 0x22, 0x3a, 0x3b, 0x6c, 0x06, 0xcc, 0x4c,
  0xca, 0xe4, 0xf1, 0x14, 0xfd, 0xdd, 0x08, 0x34, 0x5b, 0xb1, 0xf8, 0x1a,
  0xd9, 0x11, 0xe8, 0x14, 0xc0, 0x34, 0xb2, 0xde, 0xbd, 0x59, 0x4c, 0x27,
  0x6b, 0x14, 0xd8, 0xbd, 0x69, 0xfa, 0xe4, 0x39, 0x55, 0x23, 0xaa, 0xb1,
  0x27, 0x21, 0x38, 0xd7, 0x52, 0xb7, 0xbb, 0xc1, 0x3e, 0x36, 0xc8, 0xd0,
  0xb7, 0xf6, 0xab, 0xcd, 0x18, 0x1c, 0xdb, 0x73, 0x5f, 0xca, 0x06, 0xab,
  0xcf, 0x4b, 0x32, 0x20, 0xbf, 0x3e, 0xfb, 0x2c, 0xaa, 0x78, 0x61, 0xf1,
  0x59, 0xe6, 0x05, 0x4f, 0x4b, 0x2d, 0xd6, 0xd1, 0x4b, 0x7f, 0xef, 0x27,
  0x0e, 0xe8, 0xe0, 0x6b, 0x7d, 0xed, 0xbb, 0xd6, 0x51, 0x10, 0xe5, 0x4e,
  0x28, 0x04, 0x58, 0x1d, 0xd5, 0x51, 0x16, 0x42, 0xe4, 0xd0, 0xd4, 0xcc,
  0x3b, 0x03, 0x1e, 0x4e, 0x22, 0x39, 0xae, 0x53, 0xec, 0x37, 0x71, 0x53,
  0xfb, 0x49, 0x28, 0x18, 0x15, 0x54, 0x7f, 0x14, 0xde, 0x22, 0x46, 0x3d,
  0x3f, 0x25, 0x2a, 0xcf, 0x1b, 0xb0, 0x22, 0xb4, 0x18, 0x39, 0xd5, 0xf0,
  0xde, 0xec, 0xb0, 0x53, 0x1b, 0xc9, 0x07, 0xd3, 0xc4, 0x0f, 0x23, 0xf2,
  0xef, 0xd2, 0xe9, 0x2b, 0xe7, 0xbe, 0x4f, 0x4c, 0x03, 0x14, 0x58, 0x5f,
  0x37, 0xd2, 0x27, 0xf4, 0x42, 0x4c, 0x30, 0xd9, 0x35, 0x62, 0x3e, 0xf6,
  0x17, 0x15, 0xec, 0xfe, 0xe7, 0x43, 0x18, 0xf3, 0x03, 0x34, 0x69, 0xee,
  0xb2, 0xd1, 0x1d, 0x09, 0x50, 0x3f, 0x1a, 0x0d, 0xc3, 0x34, 0xb2, 0xb6,
  0xf7, 0x20, 0xf3, 0xf4, 0xd5, 0x78, 0x54, 0xf1, 0x07, 0xe9, 0x46, 0x0e,
  0xff, 0xde, 0x4c, 0xbd, 0xda, 0x52, 0x65, 0x4b, 0x37, 0x41, 0xe4, 0xe1,
  0xf6, 0x5c, 0x61, 0xcb, 0xe9, 0x46, 0xd2, 0xe8, 0x1f, 0xd6, 0xf7, 0xb3,
  0xd8, 0x46, 0xc8, 0x08, 0xdb, 0x16, 0xee, 0x68, 0x17, 0xea, 0x41, 0x33,
  0x47, 0xdf, 0x54, 0xc3, 0x30, 0x31, 0x43, 0x26, 0xd6, 0x79, 0x72, 0xd5,
  0x35, 0xe1, 0xfc, 0xeb, 0xd8, 0xca, 0xdd, 0x1c, 0x4d, 0xb4, 0xdd, 0xd4,
  0x5a, 0x5e, 0x52, 0x55, 0xb8, 0x17, 0x9a, 0x21, 0x42, 0x38, 0xdb, 0x0b,
  0x62, 0x5c, 0xe4, 0x2d, 0xb2, 0x4e, 0xf8, 0x4c, 0x4c, 0x6d, 0xf0, 0xdd,
  0xe0, 0xd2, 0x74, 0x5c, 0xd4, 0xbc, 0x9c, 0xe4, 0xb2, 0xd5, 0x18, 0x0c,
  0x03, 0x36, 0x24, 0xc1, 0xb6, 0x0c, 0x02, 0x0e, 0xe9, 0xae, 0x64, 0xd4,
  0xd1, 0xf1, 0xe4, 0x58, 0x33, 0xb9, 0xca, 0xe5, 0xdc, 0x07, 0xfb, 0x18,
  0x63, 0x65, 0xd3, 0xb5, 0x40, 0xe0, 0x44, 0x3b, 0xb1, 0xe6, 0x49, 0x4a,
  0x68, 0x2d, 0x4d, 0x61, 0xd4, 0xb9, 0xa9, 0xa3, 0x40, 0x6f, 0x5a, 0xe9,
  0xe7, 0xd9, 0x37, 0x34, 0xe3, 0x40, 0x7f, 0x2b, 0x71, 0x66, 0x1b, 0x40,
  0xf1, 0x35, 0x07, 0x48, 0xf5, 0xa3, 0xc1, 0x46, 0xe9, 0x7a, 0x70, 0xd8,
  0x46, 0x75, 0xc8, 0xb5, 0xfe, 0x79, 0x33, 0xec, 0xbf, 0xe5, 0x54, 0xbe,
  0x01, 0x23, 0x8c, 0x38, 0x9f, 0x3a, 0x9c, 0xb7, 0x77, 0xc8, 0x11, 0x68,
  0x13, 0x59, 0x71, 0x08, 0x4d, 0xaf, 0xad, 0x18, 0x38, 0x40, 0x91, 0xf5,
  0x42, 0x60, 0xc0, 0xdc, 0x2e, 0x1e, 0x97, 0x41, 0x87, 0x6d, 0xc5, 0xa1,
  0x3a, 0xd6, 0x62, 0x51, 0xb0, 0x2f, 0x3b, 0x49, 0x16, 0x41, 0x4c, 0x81,
  0x2c, 0x96, 0xff, 0x4d, 0x28, 0x53, 0xdb, 0x9c, 0x8f, 0x07, 0x3c, 0x3c,
  0xf7, 0xac, 0x53, 0xa8, 0xf9, 0x1a, 0x3d, 0xe1, 0xff, 0x43, 0x98, 0x2f,
  0x69, 0x18, 0x50, 0xe3, 0xb2, 0x10, 0xd9, 0x00, 0x9b, 0x5f, 0x20, 0x17,
  0x37, 0xcb, 0xb0, 0xc9, 0x63, 0x97, 0x13, 0x25, 0x0c, 0xec, 0x15, 0xda,
  0xc0, 0x8d, 0x92, 0xb4, 0x3d, 0x3f, 0x04, 0x11, 0xe0, 0xa6, 0x5f, 0x23,
  0xbd, 0x9c, 0x14, 0x41, 0x83, 0x59, 0xae, 0x4f, 0x60, 0xfd, 0xa2, 0x87,
  0x0e, 0x8f, 0x43, 0xec, 0x38, 0x08, 0x2a, 0xfd, 0x24, 0x2e, 0x56, 0x39,
  0xf2, 0xd8, 0x93, 0x4d, 0x1f, 0xf0, 0xa6, 0x24, 0xcb, 0xf0, 0x11, 0xe3,
  0x41, 0x5f, 0x5d, 0xf5, 0x0c, 0x04, 0x0c, 0xeb, 0xe8, 0x67, 0x4a, 0x1f,
  0xd4, 0x4e, 0x3e, 0xeb, 0x2e, 0xd8, 0x16, 0x59, 0x28, 0xc9, 0x5c, 0x4f,
  0xf5, 0x3c, 0x65, 0xc1, 0x4b, 0x06, 0xed, 0xe0, 0x49, 0x4b, 0x0a, 0x46,
  0x38, 0x1a, 0x14, 0x04, 0xee, 0x7f, 0x29, 0x33, 0x43, 0x35, 0xf1, 0x3a,
  0x08, 0x1a, 0x67, 0xfa, 0x28, 0x03, 0xc2, 0x1c, 0xfd, 0xe7, 0x5b, 0xdb,
  0x1c, 0x3f, 0xc9, 0xf2, 0x14, 0x01, 0xd5, 0x12, 0xd3, 0x6a, 0xc7, 0x2e,
  0x4f, 0x61, 0x64, 0x4a, 0x16, 0xca, 0xc8, 0x1f, 0x6b, 0xcd, 0x57, 0xa9,
  0xec, 0x68, 0x20, 0x31, 0x22, 0xea, 0xc1, 0xe8, 0xe1, 0x07, 0xc6, 0xb6,
  0xc6, 0xf7, 0xeb, 0x46, 0x1e, 0x5c, 0x38, 0x50, 0xaa, 0xec, 0x05, 0xf5,
  0xd4, 0xc0, 0x26, 0x3b, 0x24, 0xe9, 0x59, 0xc8, 0xf1, 0x5e, 0xe8, 0xd3,
  0xcf, 0x72, 0x23, 0x39, 0xf1, 0xfc, 0x09, 0xf7, 0x2d, 0x0b, 0x34, 0x30,
  0x0c, 0x0f, 0x29, 0x4b, 0x07, 0x6a, 0x56, 0x43, 0x38, 0x48, 0x38, 0xeb,
  0x20, 0x42, 0xf0, 0x48, 0x52, 0x05, 0xea, 0x69, 0xfc, 0xd3, 0x6b, 0xd5,
  0xbe, 0x29, 0x5a, 0xbd, 0x56, 0xc6, 0xdf, 0xae, 0x00, 0x69, 0x5c, 0x2b,
  0xac, 0x63, 0x7f, 0x0a, 0xf3, 0x12, 0xb0, 0x42, 0x16, 0x23, 0x1f, 0x16,
  0x01, 0xdb, 0xac, 0xf6, 0x11, 0x45, 0xf6, 0x38, 0x23, 0xef, 0x49, 0xb7,
  0x33, 0x65, 0x14, 0xb5, 0x2c, 0x56, 0x11, 0xd7, 0xb6, 0xe7, 0x35, 0x68,
  0xbd, 0x15, 0xaa, 0xfe, 0xee, 0xfb, 0x5b, 0x09, 0xc8, 0x47, 0x46, 0xae,
  0x3e, 0xbe, 0xf3, 0x44, 0x74, 0xbc, 0xd1, 0xae, 0xee, 0x29, 0xe1, 0xbc,
  0x38, 0x69, 0x2f, 0xf8, 0xbd, 0xe0, 0x1b, 0x32, 0x13, 0x5a, 0xfa, 0xfd,
  0xc2, 0x32, 0x49, 0xe2, 0xd1, 0x40, 0xe7, 0x1e, 0x14, 0xfa, 0x1e, 0x3b,
  0x09, 0x01, 0x55, 0xbb, 0x64, 0x33, 0xc5, 0x15, 0xe5, 0x6c, 0x23, 0x34,
  0xf8, 0xec, 0xfc, 0x55, 0xec, 0xdf, 0x56, 0x2f, 0x42, 0x0b, 0x0f, 0x4f,
  0xe3, 0x78, 0x13, 0x5a, 0xb3, 0xee, 0x18, 0x4a, 0x01, 0x3c, 0xfe, 0x02,
  0xb1, 0x94, 0x47, 0xcf, 0x5b, 0x25, 0x27, 0x99, 0x58, 0x4a, 0x8c, 0x37,
  0x4e, 0xdb, 0xf8, 0x53, 0xc9, 0x45, 0xa5, 0xe2, 0xdb, 0xa5, 0xe4, 0xbc,
  0xf8, 0x4d, 0x85, 0xb8, 0x3b, 0x40, 0xb4, 0x19, 0x66, 0xa7, 0xe8, 0x6c,
  0x63, 0x8d, 0x22, 0x48, 0x64, 0x21, 0x37, 0xab, 0x43, 0xe9, 0x58, 0x00,
  0x8e, 0xc1, 0x22, 0xe3, 0x2d, 0xbe, 0x57, 0xac, 0xa5, 0x8d, 0x04, 0x9e,
  0x9e, 0xa9, 0xbf, 0x05, 0x14, 0xb6, 0xe1, 0xe4, 0xbe, 0xbb, 0x35, 0x1d,
  0xd5, 0xe7, 0x4c, 0x9a, 0xaf, 0x9e, 0x19, 0xcf, 0x44, 0x54, 0x35, 0xf9,
  0xad, 0x2b, 0xf0, 0x69, 0x5f, 0x2c, 0x50, 0xf3, 0xff, 0x19, 0x47, 0x20,
  0x53, 0x8e, 0x83, 0xf4, 0x44, 0x07, 0x44, 0x5c, 0x48, 0xfb, 0x02, 0xd3,
  0x16, 0xeb, 0x22, 0xb6, 0x15, 0x81, 0xca, 0xc8, 0x62, 0xee, 0x9c, 0x9c,
  0x87, 0x9c, 0x98, 0x98, 0x2f, 0xe3, 0x55, 0xc7, 0xed, 0x8e, 0x84, 0xcc,
  0xa7, 0x14, 0xc9, 0xd0, 0xcc, 0x55, 0x9b, 0x9e, 0x43, 0x4a, 0x53, 0xac,
  0xbf, 0x16, 0xa0, 0x49, 0x05, 0xee, 0x31, 0xda, 0x5e, 0x19, 0x19, 0xa4,
  0x8e, 0xce, 0x2b, 0x6a, 0xea, 0x42, 0x8e, 0xb5, 0x10, 0x2c, 0xd5, 0xed,
  0x25, 0xbc, 0xfc, 0xd8, 0xef, 0xfb, 0x15, 0xb3, 0x84, 0x59, 0xdf, 0x52,
  0x0d, 0x99, 0xb4, 0x01, 0x2d, 0xe3, 0x3e, 0x27, 0xb7, 0x53, 0xeb, 0x51,
  0xdf, 0x02, 0x94, 0x2a, 0xd7, 0x14, 0x5b, 0x28, 0xa7, 0x99, 0xc1, 0x55,
  0x14, 0x3d, 0x0c, 0x46, 0x16, 0xda, 0xdc, 0xa9, 0x59, 0xb6, 0x42, 0x39,
  0xe0, 0x81, 0x9b, 0xcf, 0xd6, 0xe4, 0xd1, 0x23, 0xa8, 0xec, 0x9e, 0xc4,
  0x58, 0xd3, 0x24, 0x4e, 0x25, 0x08, 0xcb, 0xe2, 0x1e, 0x52, 0x1d, 0x39,
  0xad, 0x0a, 0x86, 0xe0, 0x0a, 0xd6, 0x21, 0x44, 0x61, 0xb1, 0xa7, 0x44,
  0xe4, 0x2d, 0xf0, 0x0a, 0xa8, 0x9c, 0x2e, 0x00, 0xb6, 0xbc, 0xca, 0xe5,
  0xa7, 0x4c, 0x44, 0xc8, 0x8e, 0x27, 0xad, 0xc5, 0x0c, 0x52, 0x98, 0x0b,
  0x0b, 0xb2, 0xe5, 0xee, 0x06, 0xe6, 0xa6, 0x54, 0x33, 0xb5, 0xe9, 0xc6,
  0x48, 0x02, 0xd6, 0xa3, 0x54, 0xcb, 0xac, 0x65, 0x0a, 0xea, 0x9d, 0x4d,
  0x13, 0xc3, 0xc9, 0xcf, 0xa9, 0x33, 0x2e, 0x06, 0x1d, 0xb5, 0xdb, 0x69,
  0xb0, 0x43, 0x22, 0x6a, 0xb6, 0xd5, 0xfc, 0xab, 0x46, 0xf4, 0xb3, 0x3e,
  0xc8, 0x70, 0x29, 0x4b, 0x8e, 0x36, 0x38, 0xfa, 0x48, 0xc9, 0xe8, 0x88,
  0x1e, 0xa0, 0xf3, 0x02, 0x44, 0x8a, 0xb1, 0x61, 0x4d, 0x5a, 0x1e, 0xe6,
  0x38, 0x4c, 0x49, 0x9f, 0x91, 0xcd, 0xbf, 0x8d, 0x3f, 0x91, 0x63, 0x12,
  0x18, 0x8e, 0x1c, 0xba, 0x2f, 0xdc, 0x42, 0x71, 0x5e, 0xda, 0x7c, 0x12,
  0x34, 0xe3, 0xa9, 0xe4, 0x20, 0x0f, 0xde, 0x76, 0xd8, 0x60, 0x26, 0xae,
  0x11, 0xba, 0x1a, 0xae, 0xc7, 0x0d, 0xe7, 0xf0, 0x81, 0xf2, 0xa5, 0x93,
  0x7c, 0x5a, 0x66, 0x62, 0x52, 0x72, 0xfc, 0xdf, 0xc5, 0x27, 0x61, 0xb1,
  0x82, 0x83, 0x0c, 0xb9, 0xa3, 0x45, 0x59, 0x9f, 0xea, 0x0b, 0xf4, 0xc9,
  0xdf, 0xed, 0x7a, 0x82, 0x60, 0xb0, 0xca, 0xcb, 0x41, 0x2e, 0x21, 0xda,
  0x17, 0xf7, 0x8b, 0x8c, 0x58, 0x6b, 0x16, 0xe8, 0x33, 0x10, 0xc7, 0x25,
  0x9c, 0xe6, 0x93, 0xb3, 0xcd, 0x5a, 0x27, 0xfe, 0xfa, 0xaf, 0x50, 0x8d,
  0x89, 0xd0, 0x44, 0x33, 0x6d, 0xba, 0x8f, 0x81, 0xd1, 0x02, 0x67, 0x35,
  0x42, 0xd9, 0x9e, 0xc5, 0xbd, 0xbd, 0xee, 0xab, 0xab, 0x89, 0x89, 0x4d,
  0x99, 0xb4, 0x3f, 0x10, 0xed, 0xb7, 0x94, 0x6c, 0x6e, 0x31, 0xf8, 0x3e,
  0x4e, 0x06, 0xda, 0x2d, 0x1e, 0xf4, 0x3c, 0x5b, 0x2a, 0x22, 0xba, 0x13,
  0x26, 0x97, 0x45, 0x53, 0x91, 0x66, 0x9d, 0x0e, 0x2b, 0xc7, 0x3c, 0x94,
  0x08, 0xa9, 0xf3, 0xb2, 0x93, 0x35, 0xe2, 0x32, 0xd2, 0x8f, 0xe1, 0x29,
  0xf8, 0xd1, 0xe2, 0xd9, 0xc5, 0xb0, 0xad, 0xd5, 0xa7, 0x4b, 0xe5, 0x59,
  0x1c, 0x6e, 0x4f, 0xa2, 0x52, 0xff, 0x51, 0xf1, 0x77, 0x44, 0xdd, 0xd8,
  0x4c, 0x65, 0xc1, 0x07, 0x5a, 0xe0, 0x9f, 0x4c, 0x12, 0xea, 0xb4, 0xe8,
  0x3a, 0xa1, 0x33, 0x88, 0xd8, 0xb0, 0x9f, 0xe8, 0x24, 0xf7, 0x96, 0xb8,
  0x5d, 0xde, 0xdc, 0xe7, 0x6a, 0xdf, 0x0c, 0xff, 0x08, 0x64, 0xe1, 0x53,
  0xc2, 0xb6, 0x42, 0xab, 0xba, 0xc8, 0x08, 0x3e, 0x02, 0x41, 0x1c, 0x2f,
  0x4b, 0x17, 0x35, 0x55, 0xf6, 0xa2, 0x1c, 0xf2, 0x01, 0x39, 0x0b, 0x44,
  0x23, 0x40, 0xc1, 0xee, 0xcf, 0x6a, 0xcd, 0x18, 0x21, 0x26, 0x2c, 0xfb,
  0x59, 0x65, 0x31, 0x3a, 0x48, 0x03, 0x5d, 0x1b, 0xf2, 0x5d, 0x73, 0xb5,
  0x3b, 0x1a, 0xfc, 0x9a, 0x2d, 0x44, 0xe1, 0x60, 0xf6, 0xe8, 0x54, 0xcf,
  0x96, 0x4c, 0xc9, 0x04, 0x7d, 0x45, 0x0d, 0x4a, 0xf2, 0x06, 0xd7, 0xfb,
  0xb1, 0x45, 0xa7, 0x18, 0xd0, 0xfc, 0x18, 0x4f, 0xc8, 0x23, 0x5c, 0x27,
  0xaa, 0xbd, 0xe4, 0xb1, 0x16, 0x2a, 0x25, 0x35, 0xad, 0xbe, 0xf4, 0x68,
  0xdd, 0xe3, 0x56, 0xe3, 0x0a, 0x20, 0x7f, 0xa9, 0xf8, 0x7c, 0x1c, 0x28,
  0xd5, 0x5b, 0x13, 0x24, 0x0d, 0x12, 0xe9, 0x55, 0xf5, 0x6b, 0x71, 0x40,
  0xe2, 0x75, 0xff, 0x20, 0xa8, 0xe1, 0xe3, 0x69, 0x54, 0xac, 0x21, 0xbe,
  0x20, 0x29, 0x8d, 0x23, 0xdf, 0xf8, 0x9d, 0xc6, 0x3b, 0xd7, 0x03, 0x35,
  0x2c, 0xb2, 0xee, 0x08, 0x44, 0xeb, 0x35, 0xc5, 0x49, 0x12, 0x51, 0x07,
  0xc2, 0xfe, 0xdf, 0xae, 0x90, 0xb6, 0x4d, 0xed, 0xaf, 0xa1, 0x81, 0x63,
  0x14, 0xbe, 0x19, 0xaa, 0xa8, 0xe7, 0x3c, 0xa0, 0xb2, 0xd8, 0x51, 0xb7,
  0x46, 0xf1, 0x3a, 0x34, 0x25, 0x99, 0x62, 0x4e, 0x31, 0x27, 0x0a, 0xc2,
  0x2a, 0xc5, 0xef, 0x41, 0x0b, 0xda, 0xbe, 0x05, 0x1b, 0xb6, 0x01, 0x6d,
  0xb1, 0xbd, 0x55, 0x96, 0x24, 0x30, 0xb2, 0xa5, 0x13, 0x46, 0xe1, 0x38,
  0x4d, 0x9b, 0x59, 0x2b, 0x5d, 0x0c, 0x42, 0xc4, 0x87, 0xd3, 0xc9, 0x60,
  0x19, 0xc6, 0xca, 0x4e, 0xca, 0xdb, 0xe5, 0x03, 0xc8, 0x94, 0x91, 0x3c,
  0xf6, 0xf9, 0x2c, 0x35, 0x26, 0x56, 0x8c, 0x47, 0x1f, 0xb9, 0x12, 0x32,
  0x1a, 0x36, 0xa5, 0xe0, 0x93, 0xce, 0xa8, 0x3a, 0xab, 0x1f, 0xc5, 0x21,
  0xe0, 0x00, 0x12, 0xac, 0xf5, 0x07, 0x2d, 0xe9, 0x38, 0xa6, 0x40, 0xa5,
  0xb1, 0xcd, 0xdb, 0xba, 0xab, 0x35, 0xfd, 0x06, 0xc4, 0x32, 0xae, 0xbc,
  0xe0, 0x13, 0x4a, 0x12, 0xa5, 0xff, 0x08, 0xf6, 0xca, 0xdd, 0x47, 0x1d,
  0x54, 0x0f, 0x16, 0xdc, 0xf2, 0x21, 0xe8, 0xb0, 0x08, 0xe3, 0xdb, 0x08,
  0x1f, 0xef, 0xe5, 0x30, 0xa1, 0x4b, 0xe7, 0x13, 0x67, 0xbc, 0xcb, 0xb5,
  0x51, 0xf3, 0xee, 0xcf, 0x13, 0x03, 0x60, 0x38, 0xfa, 0x3d, 0xd0, 0xe9,
  0x21, 0x99, 0xcc, 0x59, 0xf6, 0xe1, 0xd6, 0x57, 0x0b, 0x7f, 0xd9, 0x48,
  0xc7, 0xc5, 0xb0, 0x48, 0xde, 0x09, 0xd9, 0x2e, 0xc3, 0xd9, 0xcc, 0xee,
  0xef, 0x4c, 0xa0, 0x49, 0x1f, 0x2b, 0x4b, 0xdc, 0xf3, 0xc3, 0x06, 0xbf,
  0xfe, 0x4c, 0x1f, 0xbd, 0xd5, 0x04, 0x62, 0x3c, 0xa5, 0x5b, 0x33, 0xe0,
  0x39, 0x9d, 0xd7, 0x9b, 0x17, 0xac, 0x0a, 0x2f, 0xa3, 0xf7, 0xc7, 0x37,
  0xed, 0x48, 0xcb, 0x5f, 0x68, 0xcc, 0xc5, 0xdf, 0x35, 0x3e, 0x1a, 0xe9,
  0x12, 0x35, 0x38, 0x03, 0x00, 0x12, 0x50, 0xb9, 0x51, 0x30, 0x2a, 0xee,
  0xaf, 0xa6, 0xe9, 0xc8, 0xac, 0xec, 0xfb, 0x1f, 0x1c, 0xfd, 0xcf, 0x2d,
  0xdc, 0x06, 0x44, 0x02, 0x9c, 0x4e, 0x73, 0xc6, 0xab, 0x3c, 0xda, 0xf7,
  0x3f, 0x6c, 0xdf, 0xf3, 0xda, 0x17, 0x43, 0xe7, 0x55, 0xed, 0x23, 0xae,
  0x2b, 0xe6, 0x30, 0xbf, 0x3f, 0xf9, 0xe7, 0xc1, 0x37, 0x18, 0x0f, 0xf3,
  0x4a, 0x08, 0x29, 0x41, 0x22, 0x11, 0xdb, 0x5e, 0xbe, 0x50, 0xd8, 0xaf,
  0xf4, 0xf9, 0x04, 0xc1, 0xe9, 0x32, 0x07, 0xbc, 0x03, 0x03, 0xed, 0xa1,
  0x2c, 0x57, 0xbd, 0xd5, 0x7c, 0x9d, 0x39, 0x5a, 0x02, 0xd5, 0xc4, 0x55,
  0xd9, 0x57, 0xaa, 0x5b, 0x50, 0x62, 0xbd, 0xea, 0x78, 0x24, 0x4e, 0x25,
  0x3c, 0x06, 0xe4, 0x08, 0x57, 0x1f, 0xdd, 0xbe, 0xc1, 0x32, 0x45, 0x52,
  0x7f, 0xc7, 0x44, 0xb1, 0xdc, 0x46, 0x2b, 0xdf, 0xd6, 0xd8, 0x11, 0xfa,
  0xad, 0x13, 0x42, 0xaf, 0xf2, 0x5e, 0xde, 0xef, 0xfe, 0x20, 0xbc, 0x1b,
  0x38, 0x6a, 0x2e, 0x49, 0xcc, 0xc3, 0x08, 0xf3, 0x5b, 0x32, 0xd7, 0x41,
  0x30, 0xdd, 0x1f, 0x50, 0x1b, 0x41, 0xe7, 0xce, 0xb3, 0x6d, 0x34, 0x27,
  0x25, 0x1d, 0x26, 0x56, 0x4b, 0x28, 0x3d, 0xe0, 0x57, 0xf1, 0x39, 0x53,
  0xc2, 0xea, 0xc6, 0xce, 0x26, 0xae, 0xd6, 0xb2, 0x3b, 0xd7, 0x40, 0xf8,
  0x1e, 0x00, 0x15, 0xd4, 0x34, 0x7f, 0x29, 0x44, 0x14, 0x4e, 0x0d, 0xce,
  0x42, 0x5d, 0xfb, 0x2e, 0xe7, 0xe6, 0xdd, 0xc9, 0xb2, 0x2f, 0x07, 0xcd,
  0x6f, 0xe3, 0xb8, 0xf9, 0xf6, 0x03, 0x5e, 0xcc, 0x6c, 0xfe, 0x0b, 0xf0,
  0x4e, 0xec, 0xbe, 0xb8, 0xd6, 0xa9, 0x4b, 0x3e, 0x40, 0xdb, 0xdc, 0x14,
  0x01, 0x6b, 0x3b, 0xf2, 0x16, 0x38, 0xe4, 0x23, 0x43, 0xe2, 0xf9, 0xc5,
  0xbf, 0xed, 0x57, 0x59, 0x46, 0xe0, 0xe4, 0xd2, 0x5c, 0xce, 0x46, 0x5c,
  0xf7, 0x24, 0x26, 0x03, 0x32, 0xed, 0x6a, 0xbc, 0x44, 0x17, 0xe3, 0xff,
  0x42, 0xe0, 0x0f, 0x3a, 0x05, 0xb3, 0xe5, 0xfd, 0x5c, 0xca, 0x33, 0x07,
  0xc5, 0x4a, 0x01, 0x47, 0x48, 0xe8, 0xba, 0xfb, 0xf6, 0x14, 0xd5, 0x2e,
  0xce, 0x33, 0x06, 0x11, 0x10, 0x09, 0x36, 0x01, 0x3b, 0x9a, 0xc6, 0x45,
  0xee, 0x08, 0xdd, 0xe8, 0x38, 0xd7, 0xea, 0x54, 0xd9, 0x0a, 0x04, 0x42,
  0x13, 0x0d, 0xda, 0xc6, 0x92, 0xe3, 0x33, 0x53, 0xf1, 0xa1, 0x86, 0xfd,
  0x2b, 0xc9, 0x51, 0x62, 0xd7, 0xc4, 0xaa, 0x35, 0x01, 0x14, 0x47, 0x17,
  0xe0, 0xe8, 0x0a, 0x1f, 0xba, 0xd1, 0xea, 0xd5, 0x15, 0x8d, 0x38, 0xa3,
  0x22, 0xdf, 0x45, 0x07, 0xa0, 0x50, 0xdb, 0xab, 0x2d, 0x3f, 0x0c, 0x4b,
  0xd9, 0xd6, 0x18, 0xbe, 0x85, 0xba, 0x55, 0x24, 0x20, 0x0f, 0xac, 0x16,
  0xc2, 0x8a, 0xe5, 0x23, 0x3f, 0x81, 0xc1, 0xbe, 0xde, 0x57, 0x15, 0x2e,
  0xd9, 0xf2, 0xfd, 0x1f, 0x24, 0x00, 0xcc, 0x5a, 0x0c, 0xa4, 0x0a, 0xf6,
  0x23, 0x51, 0x00, 0x2b, 0xc1, 0xce, 0x8e, 0x1f, 0x34, 0xdb, 0x06, 0x45,
  0x4d, 0x33, 0x4c, 0x13, 0x96, 0x43, 0xba, 0x45, 0x25, 0xaa, 0xc7, 0xf4,
  0xf3, 0xa8, 0x54, 0x5a, 0xb1, 0x07, 0xaf, 0x00, 0x9d, 0x0f, 0x51, 0x36,
  0x96, 0xfe, 0xff, 0xff, 0x04, 0x00, 0x00, 0x00, 0x60, 0x00, 0x00, 0x00,
  0xac, 0x0f, 0x00, 0x00, 0xc3, 0xf5, 0xff, 0xff, 0xc6, 0x0e, 0x00, 0x00,
  0xc8, 0x1d, 0x00, 0x00, 0xb5, 0x04, 0x00, 0x00, 0x76, 0xea, 0xff, 0xff,
  0xba, 0xfc, 0xff, 0xff, 0x12, 0x10, 0x00, 0x00, 0x5d, 0x1b, 0x00, 0x00,
  0xf4, 0x0c, 0x00, 0x00, 0x54, 0x25, 0x00, 0x00, 0x8b, 0xeb, 0xff, 0xff,
  0x87, 0xfd, 0xff, 0xff, 0x06, 0x20, 0x00, 0x00, 0x01, 0xf2, 0xff, 0xff,
  0x99, 0x13, 0x00, 0x00, 0x0c, 0xfa, 0xff, 0xff, 0x72, 0xef, 0xff, 0xff,
  0x40, 0xfb, 0xff, 0xff, 0xaf, 0x11, 0x00, 0x00, 0xc1, 0xf4, 0xff, 0xff,
  0x53, 0xfc, 0xff, 0xff, 0x34, 0x0c, 0x00, 0x00, 0x69, 0x02, 0x00, 0x00,
  0x02, 0xff, 0xff, 0xff, 0x04, 0x00, 0x00, 0x00, 0x30, 0x00, 0x00, 0x00,
  0xa4, 0xb7, 0xa1, 0x34, 0xa4, 0x97, 0xd2, 0xe8, 0xe4, 0x76, 0xd5, 0xa6,
  0x41, 0x4f, 0xd2, 0x22, 0x6e, 0xce, 0x2f, 0xc3, 0x1e, 0x34, 0x7f, 0x33,
  0xee, 0xa3, 0x7f, 0x19, 0xc5, 0xfd, 0x9f, 0x59, 0xb6, 0xb7, 0xb5, 0xe3,
  0xbc, 0xc1, 0x73, 0x59, 0x67, 0xe5, 0xc0, 0xd5, 0xea, 0x28, 0x6b, 0x5b,
  0x3e, 0xff, 0xff, 0xff, 0x04, 0x00, 0x00, 0x00, 0x08, 0x00, 0x00, 0x00,
  0x1c, 0xff, 0xff, 0xff, 0xf5, 0x00, 0x00, 0x00, 0x52, 0xff, 0xff, 0xff,
  0x04, 0x00, 0x00, 0x00, 0x08, 0x00, 0x00, 0x00, 0x01, 0x00, 0x00, 0x00,
  0x02, 0x00, 0x00, 0x00, 0xa4, 0xea, 0xff, 0xff, 0xa8, 0xea, 0xff, 0xff,
  0x0f, 0x00, 0x00, 0x00, 0x4d, 0x4c, 0x49, 0x52, 0x20, 0x43, 0x6f, 0x6e,
  0x76, 0x65, 0x72, 0x74, 0x65, 0x64, 0x2e, 0x00, 0x01, 0x00, 0x00, 0x00,
  0x14, 0x00, 0x00, 0x00, 0x00, 0x00, 0x0e, 0x00, 0x18, 0x00, 0x14, 0x00,
  0x10, 0x00, 0x0c, 0x00, 0x08, 0x00, 0x04, 0x00, 0x0e, 0x00, 0x00, 0x00,
  0x14, 0x00, 0x00, 0x00, 0x1c, 0x00, 0x00, 0x00, 0xbc, 0x02, 0x00, 0x00,
  0xc0, 0x02, 0x00, 0x00, 0xc4, 0x02, 0x00, 0x00, 0x04, 0x00, 0x00, 0x00,
  0x6d, 0x61, 0x69, 0x6e, 0x00, 0x00, 0x00, 0x00, 0x09, 0x00, 0x00, 0x00,
  0x58, 0x02, 0x00, 0x00, 0xf4, 0x01, 0x00, 0x00, 0xa4, 0x01, 0x00, 0x00,
  0x60, 0x01, 0x00, 0x00, 0x10, 0x01, 0x00, 0x00, 0xcc, 0x00, 0x00, 0x00,
  0x84, 0x00, 0x00, 0x00, 0x40, 0x00, 0x00, 0x00, 0x04, 0x00, 0x00, 0x00,
  0x3a, 0xfe, 0xff, 0xff, 0x1c, 0x00, 0x00, 0x00, 0x00, 0x00, 0x00, 0x09,
  0x1c, 0x00, 0x00, 0x00, 0x20, 0x00, 0x00, 0x00, 0x03, 0x00, 0x00, 0x00,
  0x00, 0x00, 0x06, 0x00, 0x08, 0x00, 0x04, 0x00, 0x06, 0x00, 0x00, 0x00,
  0x00, 0x00, 0x80, 0x3f, 0x01, 0x00, 0x00, 0x00, 0x12, 0x00, 0x00, 0x00,
  0x01, 0x00, 0x00, 0x00, 0x11, 0x00, 0x00, 0x00, 0xfe, 0xfe, 0xff, 0xff,
  0x14, 0x00, 0x00, 0x00, 0x00, 0x00, 0x00, 0x1b, 0x10, 0x00, 0x00, 0x00,
  0x14, 0x00, 0x00, 0x00, 0x02, 0x00, 0x00, 0x00, 0x74, 0xeb, 0xff, 0xff,
  0x01, 0x00, 0x00, 0x00, 0x11, 0x00, 0x00, 0x00, 0x02, 0x00, 0x00, 0x00,
  0x10, 0x00, 0x00, 0x00, 0x01, 0x00, 0x00, 0x00, 0x00, 0x00, 0x0e, 0x00,
  0x16, 0x00, 0x00, 0x00, 0x10, 0x00, 0x0c, 0x00, 0x0b, 0x00, 0x04, 0x00,
  0x0e, 0x00, 0x00, 0x00, 0x1c, 0x00, 0x00, 0x00, 0x00, 0x00, 0x00, 0x01,
  0x20, 0x00, 0x00, 0x00, 0x24, 0x00, 0x00, 0x00, 0x00, 0x00, 0x0a, 0x00,
  0x0c, 0x00, 0x00, 0x00, 0x08, 0x00, 0x04, 0x00, 0x0a, 0x00, 0x00, 0x00,
  0x01, 0x00, 0x00, 0x00, 0x01, 0x00, 0x00, 0x00, 0x01, 0x00, 0x00, 0x00,
  0x10, 0x00, 0x00, 0x00, 0x03, 0x00, 0x00, 0x00, 0x0f, 0x00, 0x00, 0x00,
  0x03, 0x00, 0x00, 0x00, 0x02, 0x00, 0x00, 0x00, 0x82, 0xff, 0xff, 0xff,
  0x14, 0x00, 0x00, 0x00, 0x00, 0x00, 0x00, 0x05, 0x24, 0x00, 0x00, 0x00,
  0x28, 0x00, 0x00, 0x00, 0x01, 0x00, 0x00, 0x00, 0xe6, 0xfe, 0xff, 0xff,
  0x02, 0x00, 0x00, 0x00, 0x02, 0x00, 0x00, 0x00, 0x02, 0x00, 0x00, 0x00,
  0x02, 0x00, 0x00, 0x00, 0x00, 0x00, 0x00, 0x01, 0x01, 0x00, 0x00, 0x00,
  0x0f, 0x00, 0x00, 0x00, 0x01, 0x00, 0x00, 0x00, 0x0e, 0x00, 0x00, 0x00,
  0xd6, 0xfe, 0xff, 0xff, 0x10, 0x00, 0x00, 0x00, 0x00, 0x00, 0x00, 0x01,
  0x18, 0x00, 0x00, 0x00, 0x1c, 0x00, 0x00, 0x00, 0xc8, 0xfe, 0xff, 0xff,
  0x00, 0x00, 0x00, 0x01, 0x01, 0x00, 0x00, 0x00, 0x01, 0x00, 0x00, 0x00,
  0x01, 0x00, 0x00, 0x00, 0x0e, 0x00, 0x00, 0x00, 0x03, 0x00, 0x00, 0x00,
  0x0d, 0x00, 0x00, 0x00, 0x05, 0x00, 0x00, 0x00, 0x04, 0x00, 0x00, 0x00,
  0x00, 0x00, 0x0e, 0x00, 0x18, 0x00, 0x14, 0x00, 0x10, 0x00, 0x0c, 0x00,
  0x0b, 0x00, 0x04, 0x00, 0x0e, 0x00, 0x00, 0x00, 0x14, 0x00, 0x00, 0x00,
  0x00, 0x00, 0x00, 0x05, 0x24, 0x00, 0x00, 0x00, 0x28, 0x00, 0x00, 0x00,
  0x01, 0x00, 0x00, 0x00, 0x72, 0xff, 0xff, 0xff, 0x02, 0x00, 0x00, 0x00,
  0x02, 0x00, 0x00, 0x00, 0x02, 0x00, 0x00, 0x00, 0x02, 0x00, 0x00, 0x00,
  0x00, 0x00, 0x00, 0x01, 0x01, 0x00, 0x00, 0x00, 0x0d, 0x00, 0x00, 0x00,
  0x01, 0x00, 0x00, 0x00, 0x0c, 0x00, 0x00, 0x00, 0x62, 0xff, 0xff, 0xff,
  0x10, 0x00, 0x00, 0x00, 0x00, 0x00, 0x00, 0x01, 0x18, 0x00, 0x00, 0x00,
  0x1c, 0x00, 0x00, 0x00, 0x54, 0xff, 0xff, 0xff, 0x00, 0x00, 0x00, 0x01,
  0x01, 0x00, 0x00, 0x00, 0x01, 0x00, 0x00, 0x00, 0x01, 0x00, 0x00, 0x00,
  0x0c, 0x00, 0x00, 0x00, 0x03, 0x00, 0x00, 0x00, 0x0b, 0x00, 0x00, 0x00,
  0x07, 0x00, 0x00, 0x00, 0x06, 0x00, 0x00, 0x00, 0x00, 0x00, 0x0e, 0x00,
  0x1a, 0x00, 0x14, 0x00, 0x10, 0x00, 0x0c, 0x00, 0x0b, 0x00, 0x04, 0x00,
  0x0e, 0x00, 0x00, 0x00, 0x24, 0x00, 0x00, 0x00, 0x00, 0x00, 0x00, 0x05,
  0x34, 0x00, 0x00, 0x00, 0x38, 0x00, 0x00, 0x00, 0x01, 0x00, 0x00, 0x00,
  0x00, 0x00, 0x0e, 0x00, 0x18, 0x00, 0x17, 0x00, 0x10, 0x00, 0x0c, 0x00,
  0x08, 0x00, 0x04, 0x00, 0x0e, 0x00, 0x00, 0x00, 0x02, 0x00, 0x00, 0x00,
  0x02, 0x00, 0x00, 0x00, 0x02, 0x00, 0x00, 0x00, 0x02, 0x00, 0x00, 0x00,
  0x00, 0x00, 0x00, 0x01, 0x01, 0x00, 0x00, 0x00, 0x0b, 0x00, 0x00, 0x00,
  0x01, 0x00, 0x00, 0x00, 0x0a, 0x00, 0x00, 0x00, 0x00, 0x00, 0x0e, 0x00,
  0x14, 0x00, 0x00, 0x00, 0x10, 0x00, 0x0c, 0x00, 0x0b, 0x00, 0x04, 0x00,
  0x0e, 0x00, 0x00, 0x00, 0x1c, 0x00, 0x00, 0x00, 0x00, 0x00, 0x00, 0x01,
  0x24, 0x00, 0x00, 0x00, 0x28, 0x00, 0x00, 0x00, 0x0c, 0x00, 0x10, 0x00,
  0x00, 0x00, 0x0c, 0x00, 0x08, 0x00, 0x07, 0x00, 0x0c, 0x00, 0x00, 0x00,
  0x00, 0x00, 0x00, 0x01, 0x02, 0x00, 0x00, 0x00, 0x02, 0x00, 0x00, 0x00,
  0x01, 0x00, 0x00, 0x00, 0x0a, 0x00, 0x00, 0x00, 0x03, 0x00, 0x00, 0x00,
  0x00, 0x00, 0x00, 0x00, 0x09, 0x00, 0x00, 0x00, 0x08, 0x00, 0x00, 0x00,
  0x01, 0x00, 0x00, 0x00, 0x12, 0x00, 0x00, 0x00, 0x01, 0x00, 0x00, 0x00,
  0x00, 0x00, 0x00, 0x00, 0x13, 0x00, 0x00, 0x00, 0xc8, 0x12, 0x00, 0x00,
  0x2c, 0x12, 0x00, 0x00, 0x2c, 0x11, 0x00, 0x00, 0x90, 0x10, 0x00, 0x00,
  0x74, 0x0e, 0x00, 0x00, 0xd0, 0x0c, 0x00, 0x00, 0x14, 0x0b, 0x00, 0x00,
  0xd0, 0x09, 0x00, 0x00, 0x7c, 0x08, 0x00, 0x00, 0xa0, 0x07, 0x00, 0x00,
  0x7c, 0x06, 0x00, 0x00, 0xd0, 0x05, 0x00, 0x00, 0xa4, 0x04, 0x00, 0x00,
  0xf8, 0x03, 0x00, 0x00, 0xcc, 0x02, 0x00, 0x00, 0x20, 0x02, 0x00, 0x00,
  0x1c, 0x01, 0x00, 0x00, 0x80, 0x00, 0x00, 0x00, 0x04, 0x00, 0x00, 0x00,
  0x9a, 0xed, 0xff, 0xff, 0x00, 0x00, 0x00, 0x01, 0x18, 0x00, 0x00, 0x00,
  0x20, 0x00, 0x00, 0x00, 0x3c, 0x00, 0x00, 0x00, 0x13, 0x00, 0x00, 0x00,
  0x00, 0x00, 0x00, 0x09, 0x50, 0x00, 0x00, 0x00, 0x02, 0x00, 0x00, 0x00,
  0xff, 0xff, 0xff, 0xff, 0x02, 0x00, 0x00, 0x00, 0x7c, 0xed, 0xff, 0xff,
  0x08, 0x00, 0x00, 0x00, 0x10, 0x00, 0x00, 0x00, 0x01, 0x00, 0x00, 0x00,
  0x80, 0xff, 0xff, 0xff, 0xff, 0xff, 0xff, 0xff, 0x01, 0x00, 0x00, 0x00,
  0x00, 0x00, 0x80, 0x3b, 0x1b, 0x00, 0x00, 0x00, 0x53, 0x74, 0x61, 0x74,
  0x65, 0x66, 0x75, 0x6c, 0x50, 0x61, 0x72, 0x74, 0x69, 0x74, 0x69, 0x6f,
  0x6e, 0x65, 0x64, 0x43, 0x61, 0x6c, 0x6c, 0x5f, 0x31, 0x3a, 0x30, 0x00,
  0x02, 0x00, 0x00, 0x00, 0x01, 0x00, 0x00, 0x00, 0x02, 0x00, 0x00, 0x00,
  0x12, 0xee, 0xff, 0xff, 0x00, 0x00, 0x00, 0x01, 0x18, 0x00, 0x00, 0x00,
  0x20, 0x00, 0x00, 0x00, 0x3c, 0x00, 0x00, 0x00, 0x12, 0x00, 0x00, 0x00,
  0x00, 0x00, 0x00, 0x09, 0x70, 0x00, 0x00, 0x00, 0x02, 0x00, 0x00, 0x00,
  0xff, 0xff, 0xff, 0xff, 0x02, 0x00, 0x00, 0x00, 0xf4, 0xed, 0xff, 0xff,
  0x08, 0x00, 0x00, 0x00, 0x10, 0x00, 0x00, 0x00, 0x01, 0x00, 0x00, 0x00,
  0x02, 0x00, 0x00, 0x00, 0x00, 0x00, 0x00, 0x00, 0x01, 0x00, 0x00, 0x00,
  0x1e, 0x90, 0x19, 0x3a, 0x3a, 0x00, 0x00, 0x00, 0x69, 0x64, 0x65, 0x6e,
  0x74, 0x69, 0x66, 0x69, 0x65, 0x72, 0x5f, 0x7a, 0x6f, 0x6e, 0x65, 0x5f,
  0x64, 0x65, 0x74, 0x65, 0x63, 0x74, 0x6f, 0x72, 0x5f, 0x31, 0x2f, 0x67,
  0x6c, 0x6f, 0x62, 0x61, 0x6c, 0x5f, 0x61, 0x76, 0x65, 0x72, 0x61, 0x67,
  0x65, 0x5f, 0x70, 0x6f, 0x6f, 0x6c, 0x69, 0x6e, 0x67, 0x32, 0x64, 0x5f,
  0x31, 0x2f, 0x4d, 0x65, 0x61, 0x6e, 0x00, 0x00, 0x02, 0x00, 0x00, 0x00,
  0x01, 0x00, 0x00, 0x00, 0x02, 0x00, 0x00, 0x00, 0xaa, 0xee, 0xff, 0xff,
  0x00, 0x00, 0x00, 0x01, 0x18, 0x00, 0x00, 0x00, 0x28, 0x00, 0x00, 0x00,
  0x48, 0x00, 0x00, 0x00, 0x11, 0x00, 0x00, 0x00, 0x00, 0x00, 0x00, 0x09,
  0xd0, 0x00, 0x00, 0x00, 0x04, 0x00, 0x00, 0x00, 0xff, 0xff, 0xff, 0xff,
  0x06, 0x00, 0x00, 0x00, 0x06, 0x00, 0x00, 0x00, 0x02, 0x00, 0x00, 0x00,
  0x94, 0xee, 0xff, 0xff, 0x08, 0x00, 0x00, 0x00, 0x14, 0x00, 0x00, 0x00,
  0x01, 0x00, 0x00, 0x00, 0x09, 0x00, 0x00, 0x00, 0x00, 0x00, 0x00, 0x00,
  0x00, 0x00, 0x00, 0x00, 0x01, 0x00, 0x00, 0x00, 0x9b, 0xa6, 0xa4, 0x3a,
  0x8e, 0x00, 0x00, 0x00, 0x69, 0x64, 0x65, 0x6e, 0x74, 0x69, 0x66, 0x69,
  0x65, 0x72, 0x5f, 0x7a, 0x6f, 0x6e, 0x65, 0x5f, 0x64, 0x65, 0x74, 0x65,
  0x63, 0x74, 0x6f, 0x72, 0x5f, 0x31, 0x2f, 0x63, 0x6f, 0x6e, 0x76, 0x32,
  0x64, 0x5f, 0x33, 0x5f, 0x31, 0x2f, 0x42, 0x69, 0x61, 0x73, 0x41, 0x64,
  0x64, 0x3b, 0x69, 0x64, 0x65, 0x6e, 0x74, 0x69, 0x66, 0x69, 0x65, 0x72,
  0x5f, 0x7a, 0x6f, 0x6e, 0x65, 0x5f, 0x64, 0x65, 0x74, 0x65, 0x63, 0x74,
  0x6f, 0x72, 0x5f, 0x31, 0x2f, 0x63, 0x6f, 0x6e, 0x76, 0x32, 0x64, 0x5f,
  0x33, 0x5f, 0x31, 0x2f, 0x63, 0x6f, 0x6e, 0x76, 0x6f, 0x6c, 0x75, 0x74,
  0x69, 0x6f, 0x6e, 0x3b, 0x69, 0x64, 0x65, 0x6e, 0x74, 0x69, 0x66, 0x69,
  0x65, 0x72, 0x5f, 0x7a, 0x6f, 0x6e, 0x65, 0x5f, 0x64, 0x65, 0x74, 0x65,
  0x63, 0x74, 0x6f, 0x72, 0x5f, 0x31, 0x2f, 0x63, 0x6f, 0x6e, 0x76, 0x32,
  0x64, 0x5f, 0x33, 0x5f, 0x31, 0x2f, 0x53, 0x71, 0x75, 0x65, 0x65, 0x7a,
  0x65, 0x31, 0x00, 0x00, 0x04, 0x00, 0x00, 0x00, 0x01, 0x00, 0x00, 0x00,
  0x06, 0x00, 0x00, 0x00, 0x06, 0x00, 0x00, 0x00, 0x02, 0x00, 0x00, 0x00,
  0xaa, 0xef, 0xff, 0xff, 0x00, 0x00, 0x00, 0x01, 0x18, 0x00, 0x00, 0x00,
  0x28, 0x00, 0x00, 0x00, 0x44, 0x00, 0x00, 0x00, 0x10, 0x00, 0x00, 0x00,
  0x00, 0x00, 0x00, 0x09, 0x78, 0x00, 0x00, 0x00, 0x04, 0x00, 0x00, 0x00,
  0xff, 0xff, 0xff, 0xff, 0x06, 0x00, 0x00, 0x00, 0x06, 0x00, 0x00, 0x00,
  0x18, 0x00, 0x00, 0x00, 0x94, 0xef, 0xff, 0xff, 0x08, 0x00, 0x00, 0x00,
  0x10, 0x00, 0x00, 0x00, 0x01, 0x00, 0x00, 0x00, 0x80, 0xff, 0xff, 0xff,
  0xff, 0xff, 0xff, 0xff, 0x01, 0x00, 0x00, 0x00, 0xb7, 0xe1, 0xcf, 0x3a,
  0x38, 0x00, 0x00, 0x00, 0x69, 0x64, 0x65, 0x6e, 0x74, 0x69, 0x66, 0x69,
  0x65, 0x72, 0x5f, 0x7a, 0x6f, 0x6e, 0x65, 0x5f, 0x64, 0x65, 0x74, 0x65,
  0x63, 0x74, 0x6f, 0x72, 0x5f, 0x31, 0x2f, 0x61, 0x76, 0x65, 0x72, 0x61,
  0x67, 0x65, 0x5f, 0x70, 0x6f, 0x6f, 0x6c, 0x69, 0x6e, 0x67, 0x32, 0x64,
  0x5f, 0x32, 0x5f, 0x31, 0x2f, 0x41, 0x76, 0x67, 0x50, 0x6f, 0x6f, 0x6c,
  0x00, 0x00, 0x00, 0x00, 0x04, 0x00, 0x00, 0x00, 0x01, 0x00, 0x00, 0x00,
  0x06, 0x00, 0x00, 0x00, 0x06, 0x00, 0x00, 0x00, 0x18, 0x00, 0x00, 0x00,
  0x52, 0xf0, 0xff, 0xff, 0x00, 0x00, 0x00, 0x01, 0x18, 0x00, 0x00, 0x00,
  0x28, 0x00, 0x00, 0x00, 0x44, 0x00, 0x00, 0x00, 0x0f, 0x00, 0x00, 0x00,
  0x00, 0x00, 0x00, 0x09, 0xf8, 0x00, 0x00, 0x00, 0x04, 0x00, 0x00, 0x00,
  0xff, 0xff, 0xff, 0xff, 0x0c, 0x00, 0x00, 0x00, 0x0c, 0x00, 0x00, 0x00,
  0x18, 0x00, 0x00, 0x00, 0x3c, 0xf0, 0xff, 0xff, 0x08, 0x00, 0x00, 0x00,
  0x10, 0x00, 0x00, 0x00, 0x01, 0x00, 0x00, 0x00, 0x80, 0xff, 0xff, 0xff,
  0xff, 0xff, 0xff, 0xff, 0x01, 0x00, 0x00, 0x00, 0xb7, 0xe1, 0xcf, 0x3a,
  0xb9, 0x00, 0x00, 0x00, 0x69, 0x64, 0x65, 0x6e, 0x74, 0x69, 0x66, 0x69,
  0x65, 0x72, 0x5f, 0x7a, 0x6f, 0x6e, 0x65, 0x5f, 0x64, 0x65, 0x74, 0x65,
  0x63, 0x74, 0x6f, 0x72, 0x5f, 0x31, 0x2f, 0x63, 0x6f, 0x6e, 0x76, 0x32,
  0x64, 0x5f, 0x32, 0x5f, 0x31, 0x2f, 0x52, 0x65, 0x6c, 0x75, 0x3b, 0x69,
  0x64, 0x65, 0x6e, 0x74, 0x69, 0x66, 0x69, 0x65, 0x72, 0x5f, 0x7a, 0x6f,
  0x6e, 0x65, 0x5f, 0x64, 0x65, 0x74, 0x65, 0x63, 0x74, 0x6f, 0x72, 0x5f,
  0x31, 0x2f, 0x63, 0x6f, 0x6e, 0x76, 0x32, 0x64, 0x5f, 0x32, 0x5f, 0x31,
  0x2f, 0x42, 0x69, 0x61, 0x73, 0x41, 0x64, 0x64, 0x3b, 0x69, 0x64, 0x65,
  0x6e, 0x74, 0x69, 0x66, 0x69, 0x65, 0x72, 0x5f, 0x7a, 0x6f, 0x6e, 0x65,
  0x5f, 0x64, 0x65, 0x74, 0x65, 0x63, 0x74, 0x6f, 0x72, 0x5f, 0x31, 0x2f,
  0x63, 0x6f, 0x6e, 0x76, 0x32, 0x64, 0x5f, 0x32, 0x5f, 0x31, 0x2f, 0x63,
  0x6f, 0x6e, 0x76, 0x6f, 0x6c, 0x75, 0x74, 0x69, 0x6f, 0x6e, 0x3b, 0x69,
  0x64, 0x65, 0x6e, 0x74, 0x69, 0x66, 0x69, 0x65, 0x72, 0x5f, 0x7a, 0x6f,
  0x6e, 0x65, 0x5f, 0x64, 0x65, 0x74, 0x65, 0x63, 0x74, 0x6f, 0x72, 0x5f,
  0x31, 0x2f, 0x63, 0x6f, 0x6e, 0x76, 0x32, 0x64, 0x5f, 0x32, 0x5f, 0x31,
  0x2f, 0x53, 0x71, 0x75, 0x65, 0x65, 0x7a, 0x65, 0x31, 0x00, 0x00, 0x00,
  0x04, 0x00, 0x00, 0x00, 0x01, 0x00, 0x00, 0x00, 0x0c, 0x00, 0x00, 0x00,
  0x0c, 0x00, 0x00, 0x00, 0x18, 0x00, 0x00, 0x00, 0x7a, 0xf1, 0xff, 0xff,
  0x00, 0x00, 0x00, 0x01, 0x18, 0x00, 0x00, 0x00, 0x28, 0x00, 0x00, 0x00,
  0x44, 0x00, 0x00, 0x00, 0x0e, 0x00, 0x00, 0x00, 0x00, 0x00, 0x00, 0x09,
  0x78, 0x00, 0x00, 0x00, 0x04, 0x00, 0x00, 0x00, 0xff, 0xff, 0xff, 0xff,
  0x0c, 0x00, 0x00, 0x00, 0x0c, 0x00, 0x00, 0x00, 0x10, 0x00, 0x00, 0x00,
  0x64, 0xf1, 0xff, 0xff, 0x08, 0x00, 0x00, 0x00, 0x10, 0x00, 0x00, 0x00,
  0x01, 0x00, 0x00, 0x00, 0x80, 0xff, 0xff, 0xff, 0xff, 0xff, 0xff, 0xff,
  0x01, 0x00, 0x00, 0x00, 0xb4, 0x2f, 0xdb, 0x3a, 0x38, 0x00, 0x00, 0x00,
  0x69, 0x64, 0x65, 0x6e, 0x74, 0x69, 0x66, 0x69, 0x65, 0x72, 0x5f, 0x7a,
  0x6f, 0x6e, 0x65, 0x5f, 0x64, 0x65, 0x74, 0x65, 0x63, 0x74, 0x6f, 0x72,
  0x5f, 0x31, 0x2f, 0x61, 0x76, 0x65, 0x72, 0x61, 0x67, 0x65, 0x5f, 0x70,
  0x6f, 0x6f, 0x6c, 0x69, 0x6e, 0x67, 0x32, 0x64, 0x5f, 0x31, 0x5f, 0x32,
  0x2f, 0x41, 0x76, 0x67, 0x50, 0x6f, 0x6f, 0x6c, 0x00, 0x00, 0x00, 0x00,
  0x04, 0x00, 0x00, 0x00, 0x01, 0x00, 0x00, 0x00, 0x0c, 0x00, 0x00, 0x00,
  0x0c, 0x00, 0x00, 0x00, 0x10, 0x00, 0x00, 0x00, 0x22, 0xf2, 0xff, 0xff,
  0x00, 0x00, 0x00, 0x01, 0x18, 0x00, 0x00, 0x00, 0x28, 0x00, 0x00, 0x00,
  0x44, 0x00, 0x00, 0x00, 0x0d, 0x00, 0x00, 0x00, 0x00, 0x00, 0x00, 0x09,
  0xf8, 0x00, 0x00, 0x00, 0x04, 0x00, 0x00, 0x00, 0xff, 0xff, 0xff, 0xff,
  0x18, 0x00, 0x00, 0x00, 0x18, 0x00, 0x00, 0x00, 0x10, 0x00, 0x00, 0x00,
  0x0c, 0xf2, 0xff, 0xff, 0x08, 0x00, 0x00, 0x00, 0x10, 0x00, 0x00, 0x00,
  0x01, 0x00, 0x00, 0x00, 0x80, 0xff, 0xff, 0xff, 0xff, 0xff, 0xff, 0xff,
  0x01, 0x00, 0x00, 0x00, 0xb4, 0x2f, 0xdb, 0x3a, 0xb9, 0x00, 0x00, 0x00,
  0x69, 0x64, 0x65, 0x6e, 0x74, 0x69, 0x66, 0x69, 0x65, 0x72, 0x5f, 0x7a,
  0x6f, 0x6e, 0x65, 0x5f, 0x64, 0x65, 0x74, 0x65, 0x63, 0x74, 0x6f, 0x72,
  0x5f, 0x31, 0x2f, 0x63, 0x6f, 0x6e, 0x76, 0x32, 0x64, 0x5f, 0x31, 0x5f,
  0x32, 0x2f, 0x52, 0x65, 0x6c, 0x75, 0x3b, 0x69, 0x64, 0x65, 0x6e, 0x74,
  0x69, 0x66, 0x69, 0x65, 0x72, 0x5f, 0x7a, 0x6f, 0x6e, 0x65, 0x5f, 0x64,
  0x65, 0x74, 0x65, 0x63, 0x74, 0x6f, 0x72, 0x5f, 0x31, 0x2f, 0x63, 0x6f,
  0x6e, 0x76, 0x32, 0x64, 0x5f, 0x31, 0x5f, 0x32, 0x2f, 0x42, 0x69, 0x61,
  0x73, 0x41, 0x64, 0x64, 0x3b, 0x69, 0x64, 0x65, 0x6e, 0x74, 0x69, 0x66,
  0x69, 0x65, 0x72, 0x5f, 0x7a, 0x6f, 0x6e, 0x65, 0x5f, 0x64, 0x65, 0x74,
  0x65, 0x63, 0x74, 0x6f, 0x72, 0x5f, 0x31, 0x2f, 0x63, 0x6f, 0x6e, 0x76,
  0x32, 0x64, 0x5f, 0x31, 0x5f, 0x32, 0x2f, 0x63, 0x6f, 0x6e, 0x76, 0x6f,
  0x6c, 0x75, 0x74, 0x69, 0x6f, 0x6e, 0x3b, 0x69, 0x64, 0x65, 0x6e, 0x74,
  0x69, 0x66, 0x69, 0x65, 0x72, 0x5f, 0x7a, 0x6f, 0x6e, 0x65, 0x5f, 0x64,
  0x65, 0x74, 0x65, 0x63, 0x74, 0x6f, 0x72, 0x5f, 0x31, 0x2f, 0x63, 0x6f,
  0x6e, 0x76, 0x32, 0x64, 0x5f, 0x31, 0x5f, 0x32, 0x2f, 0x53, 0x71, 0x75,
  0x65, 0x65, 0x7a, 0x65, 0x31, 0x00, 0x00, 0x00, 0x04, 0x00, 0x00, 0x00,
  0x01, 0x00, 0x00, 0x00, 0x18, 0x00, 0x00, 0x00, 0x18, 0x00, 0x00, 0x00,
  0x10, 0x00, 0x00, 0x00, 0x4a, 0xf3, 0xff, 0xff, 0x00, 0x00, 0x00, 0x01,
  0x18, 0x00, 0x00, 0x00, 0x28, 0x00, 0x00, 0x00, 0x48, 0x00, 0x00, 0x00,
  0x0c, 0x00, 0x00, 0x00, 0x00, 0x00, 0x00, 0x09, 0x78, 0x00, 0x00, 0x00,
  0x04, 0x00, 0x00, 0x00, 0xff, 0xff, 0xff, 0xff, 0x18, 0x00, 0x00, 0x00,
  0x18, 0x00, 0x00, 0x00, 0x08, 0x00, 0x00, 0x00, 0x34, 0xf3, 0xff, 0xff,
  0x08, 0x00, 0x00, 0x00, 0x14, 0x00, 0x00, 0x00, 0x01, 0x00, 0x00, 0x00,
  0x80, 0xff, 0xff, 0xff, 0xff, 0xff, 0xff, 0xff, 0x00, 0x00, 0x00, 0x00,
  0x01, 0x00, 0x00, 0x00, 0x39, 0x5d, 0x5f, 0x3b, 0x36, 0x00, 0x00, 0x00,
  0x69, 0x64, 0x65, 0x6e, 0x74, 0x69, 0x66, 0x69, 0x65, 0x72, 0x5f, 0x7a,
  0x6f, 0x6e, 0x65, 0x5f, 0x64, 0x65, 0x74, 0x65, 0x63, 0x74, 0x6f, 0x72,
  0x5f, 0x31, 0x2f, 0x61, 0x76, 0x65, 0x72, 0x61, 0x67, 0x65, 0x5f, 0x70,
  0x6f, 0x6f, 0x6c, 0x69, 0x6e, 0x67, 0x32, 0x64, 0x5f, 0x31, 0x2f, 0x41,
  0x76, 0x67, 0x50, 0x6f, 0x6f, 0x6c, 0x00, 0x00, 0x04, 0x00, 0x00, 0x00,
  0x01, 0x00, 0x00, 0x00, 0x18, 0x00, 0x00, 0x00, 0x18, 0x00, 0x00, 0x00,
  0x08, 0x00, 0x00, 0x00, 0xf2, 0xf3, 0xff, 0xff, 0x00, 0x00, 0x00, 0x01,
  0x18, 0x00, 0x00, 0x00, 0x28, 0x00, 0x00, 0x00, 0x44, 0x00, 0x00, 0x00,
  0x0b, 0x00, 0x00, 0x00, 0x00, 0x00, 0x00, 0x09, 0xf0, 0x00, 0x00, 0x00,
  0x04, 0x00, 0x00, 0x00, 0xff, 0xff, 0xff, 0xff, 0x30, 0x00, 0x00, 0x00,
  0x30, 0x00, 0x00, 0x00, 0x08, 0x00, 0x00, 0x00, 0xdc, 0xf3, 0xff, 0xff,
  0x08, 0x00, 0x00, 0x00, 0x10, 0x00, 0x00, 0x00, 0x01, 0x00, 0x00, 0x00,
  0x80, 0xff, 0xff, 0xff, 0xff, 0xff, 0xff, 0xff, 0x01, 0x00, 0x00, 0x00,
  0x39, 0x5d, 0x5f, 0x3b, 0xb1, 0x00, 0x00, 0x00, 0x69, 0x64, 0x65, 0x6e,
  0x74, 0x69, 0x66, 0x69, 0x65, 0x72, 0x5f, 0x7a, 0x6f, 0x6e, 0x65, 0x5f,
  0x64, 0x65, 0x74, 0x65, 0x63, 0x74, 0x6f, 0x72, 0x5f, 0x31, 0x2f, 0x63,
  0x6f, 0x6e, 0x76, 0x32, 0x64, 0x5f, 0x31, 0x2f, 0x52, 0x65, 0x6c, 0x75,
  0x3b, 0x69, 0x64, 0x65, 0x6e, 0x74, 0x69, 0x66, 0x69, 0x65, 0x72, 0x5f,
  0x7a, 0x6f, 0x6e, 0x65, 0x5f, 0x64, 0x65, 0x74, 0x65, 0x63, 0x74, 0x6f,
  0x72, 0x5f, 0x31, 0x2f, 0x63, 0x6f, 0x6e, 0x76, 0x32, 0x64, 0x5f, 0x31,
  0x2f, 0x42, 0x69, 0x61, 0x73, 0x41, 0x64, 0x64, 0x3b, 0x69, 0x64, 0x65,
  0x6e, 0x74, 0x69, 0x66, 0x69, 0x65, 0x72, 0x5f, 0x7a, 0x6f, 0x6e, 0x65,
  0x5f, 0x64, 0x65, 0x74, 0x65, 0x63, 0x74, 0x6f, 0x72, 0x5f, 0x31, 0x2f,
  0x63, 0x6f, 0x6e, 0x76, 0x32, 0x64, 0x5f, 0x31, 0x2f, 0x63, 0x6f, 0x6e,
  0x76, 0x6f, 0x6c, 0x75, 0x74, 0x69, 0x6f, 0x6e, 0x3b, 0x69, 0x64, 0x65,
  0x6e, 0x74, 0x69, 0x66, 0x69, 0x65, 0x72, 0x5f, 0x7a, 0x6f, 0x6e, 0x65,
  0x5f, 0x64, 0x65, 0x74, 0x65, 0x63, 0x74, 0x6f, 0x72, 0x5f, 0x31, 0x2f,
  0x63, 0x6f, 0x6e, 0x76, 0x32, 0x64, 0x5f, 0x31, 0x2f, 0x53, 0x71, 0x75,
  0x65, 0x65, 0x7a, 0x65, 0x31, 0x00, 0x00, 0x00, 0x04, 0x00, 0x00, 0x00,
  0x01, 0x00, 0x00, 0x00, 0x30, 0x00, 0x00, 0x00, 0x30, 0x00, 0x00, 0x00,
  0x08, 0x00, 0x00, 0x00, 0xaa, 0xf5, 0xff, 0xff, 0x00, 0x00, 0x00, 0x01,
  0x14, 0x00, 0x00, 0x00, 0x84, 0x00, 0x00, 0x00, 0x0a, 0x00, 0x00, 0x00,
  0x00, 0x00, 0x00, 0x09, 0xac, 0x00, 0x00, 0x00, 0xe4, 0xf4, 0xff, 0xff,
  0x08, 0x00, 0x00, 0x00, 0x48, 0x00, 0x00, 0x00, 0x08, 0x00, 0x00, 0x00,
  0x00, 0x00, 0x00, 0x00, 0x00, 0x00, 0x00, 0x00, 0x00, 0x00, 0x00, 0x00,
  0x00, 0x00, 0x00, 0x00, 0x00, 0x00, 0x00, 0x00, 0x00, 0x00, 0x00, 0x00,
  0x00, 0x00, 0x00, 0x00, 0x00, 0x00, 0x00, 0x00, 0x00, 0x00, 0x00, 0x00,
  0x00, 0x00, 0x00, 0x00, 0x00, 0x00, 0x00, 0x00, 0x00, 0x00, 0x00, 0x00,
  0x00, 0x00, 0x00, 0x00, 0x00, 0x00, 0x00, 0x00, 0x00, 0x00, 0x00, 0x00,
  0x00, 0x00, 0x00, 0x00, 0x08, 0x00, 0x00, 0x00, 0x1f, 0xc3, 0x0c, 0x3b,
  0x2e, 0xe7, 0x08, 0x3b, 0xcb, 0x65, 0xf2, 0x3a, 0xd8, 0xfd, 0x02, 0x3b,
  0x7b, 0xa5, 0xeb, 0x3a, 0x13, 0x6c, 0xea, 0x3a, 0x94, 0x86, 0x0c, 0x3b,
  0x7c, 0xf4, 0xe0, 0x3a, 0x2f, 0x00, 0x00, 0x00, 0x69, 0x64, 0x65, 0x6e,
  0x74, 0x69, 0x66, 0x69, 0x65, 0x72, 0x5f, 0x7a, 0x6f, 0x6e, 0x65, 0x5f,
  0x64, 0x65, 0x74, 0x65, 0x63, 0x74, 0x6f, 0x72, 0x5f, 0x31, 0x2f, 0x63,
  0x6f, 0x6e, 0x76, 0x32, 0x64, 0x5f, 0x31, 0x2f, 0x63, 0x6f, 0x6e, 0x76,
  0x6f, 0x6c, 0x75, 0x74, 0x69, 0x6f, 0x6e, 0x00, 0x04, 0x00, 0x00, 0x00,
  0x08, 0x00, 0x00, 0x00, 0x03, 0x00, 0x00, 0x00, 0x03, 0x00, 0x00, 0x00,
  0x01, 0x00, 0x00, 0x00, 0x82, 0xf6, 0xff, 0xff, 0x00, 0x00, 0x00, 0x01,
  0x14, 0x00, 0x00, 0x00, 0x84, 0x00, 0x00, 0x00, 0x09, 0x00, 0x00, 0x00,
  0x00, 0x00, 0x00, 0x02, 0x30, 0x01, 0x00, 0x00, 0xbc, 0xf5, 0xff, 0xff,
  0x08, 0x00, 0x00, 0x00, 0x48, 0x00, 0x00, 0x00, 0x08, 0x00, 0x00, 0x00,
  0x00, 0x00, 0x00, 0x00, 0x00, 0x00, 0x00, 0x00, 0x00, 0x00, 0x00, 0x00,
  0x00, 0x00, 0x00, 0x00, 0x00, 0x00, 0x00, 0x00, 0x00, 0x00, 0x00, 0x00,
  0x00, 0x00, 0x00, 0x00, 0x00, 0x00, 0x00, 0x00, 0x00, 0x00, 0x00, 0x00,
  0x00, 0x00, 0x00, 0x00, 0x00, 0x00, 0x00, 0x00, 0x00, 0x00, 0x00, 0x00,
  0x00, 0x00, 0x00, 0x00, 0x00, 0x00, 0x00, 0x00, 0x00, 0x00, 0x00, 0x00,
  0x00, 0x00, 0x00, 0x00, 0x08, 0x00, 0x00, 0x00, 0x70, 0x50, 0x0d, 0x37,
  0x9f, 0x70, 0x09, 0x37, 0x25, 0x59, 0xf3, 0x36, 0x5a, 0x81, 0x03, 0x37,
  0x0e, 0x92, 0xec, 0x36, 0x6b, 0x57, 0xeb, 0x36, 0xa8, 0x13, 0x0d, 0x37,
  0x53, 0xd6, 0xe1, 0x36, 0xb0, 0x00, 0x00, 0x00, 0x69, 0x64, 0x65, 0x6e,
  0x74, 0x69, 0x66, 0x69, 0x65, 0x72, 0x5f, 0x7a, 0x6f, 0x6e, 0x65, 0x5f,
  0x64, 0x65, 0x74, 0x65, 0x63, 0x74, 0x6f, 0x72, 0x5f, 0x31, 0x2f, 0x63,
  0x6f, 0x6e, 0x76, 0x32, 0x64, 0x5f, 0x31, 0x2f, 0x52, 0x65, 0x6c, 0x75,
  0x3b, 0x69, 0x64, 0x65, 0x6e, 0x74, 0x69, 0x66, 0x69, 0x65, 0x72, 0x5f,
  0x7a, 0x6f, 0x6e, 0x65, 0x5f, 0x64, 0x65, 0x74, 0x65, 0x63, 0x74, 0x6f,
  0x72, 0x5f, 0x31, 0x2f, 0x63, 0x6f, 0x6e, 0x76, 0x32, 0x64, 0x5f, 0x31,
  0x2f, 0x42, 0x69, 0x61, 0x73, 0x41, 0x64, 0x64, 0x3b, 0x69, 0x64, 0x65,
  0x6e, 0x74, 0x69, 0x66, 0x69, 0x65, 0x72, 0x5f, 0x7a, 0x6f, 0x6e, 0x65,
  0x5f, 0x64, 0x65, 0x74, 0x65, 0x63, 0x74, 0x6f, 0x72, 0x5f, 0x31, 0x2f,
  0x63, 0x6f, 0x6e, 0x76, 0x32, 0x64, 0x5f, 0x31, 0x2f, 0x63, 0x6f, 0x6e,
  0x76, 0x6f, 0x6c, 0x75, 0x74, 0x69, 0x6f, 0x6e, 0x3b, 0x69, 0x64, 0x65,
  0x6e, 0x74, 0x69, 0x66, 0x69, 0x65, 0x72, 0x5f, 0x7a, 0x6f, 0x6e, 0x65,
  0x5f, 0x64, 0x65, 0x74, 0x65, 0x63, 0x74, 0x6f, 0x72, 0x5f, 0x31, 0x2f,
  0x63, 0x6f, 0x6e, 0x76, 0x32, 0x64, 0x5f, 0x31, 0x2f, 0x53, 0x71, 0x75,
  0x65, 0x65, 0x7a, 0x65, 0x00, 0x00, 0x00, 0x00, 0x01, 0x00, 0x00, 0x00,
  0x08, 0x00, 0x00, 0x00, 0xd2, 0xf7, 0xff, 0xff, 0x00, 0x00, 0x00, 0x01,
  0x14, 0x00, 0x00, 0x00, 0xe8, 0x00, 0x00, 0x00, 0x08, 0x00, 0x00, 0x00,
  0x00, 0x00, 0x00, 0x09, 0x14, 0x01, 0x00, 0x00, 0x0c, 0xf7, 0xff, 0xff,
  0x08, 0x00, 0x00, 0x00, 0x8c, 0x00, 0x00, 0x00, 0x10, 0x00, 0x00, 0x00,
  0x00, 0x00, 0x00, 0x00, 0x00, 0x00, 0x00, 0x00, 0x00, 0x00, 0x00, 0x00,
  0x00, 0x00, 0x00, 0x00, 0x00, 0x00, 0x00, 0x00, 0x00, 0x00, 0x00, 0x00,
  0x00, 0x00, 0x00, 0x00, 0x00, 0x00, 0x00, 0x00, 0x00, 0x00, 0x00, 0x00,
  0x00, 0x00, 0x00, 0x00, 0x00, 0x00, 0x00, 0x00, 0x00, 0x00, 0x00, 0x00,
  0x00, 0x00, 0x00, 0x00, 0x00, 0x00, 0x00, 0x00, 0x00, 0x00, 0x00, 0x00,
  0x00, 0x00, 0x00, 0x00, 0x00, 0x00, 0x00, 0x00, 0x00, 0x00, 0x00, 0x00,
  0x00, 0x00, 0x00, 0x00, 0x00, 0x00, 0x00, 0x00, 0x00, 0x00, 0x00, 0x00,
  0x00, 0x00, 0x00, 0x00, 0x00, 0x00, 0x00, 0x00, 0x00, 0x00, 0x00, 0x00,
  0x00, 0x00, 0x00, 0x00, 0x00, 0x00, 0x00, 0x00, 0x00, 0x00, 0x00, 0x00,
  0x00, 0x00, 0x00, 0x00, 0x00, 0x00, 0x00, 0x00, 0x00, 0x00, 0x00, 0x00,
  0x00, 0x00, 0x00, 0x00, 0x00, 0x00, 0x00, 0x00, 0x00, 0x00, 0x00, 0x00,
  0x10, 0x00, 0x00, 0x00, 0xaf, 0x55, 0xb7, 0x3a, 0xde, 0x51, 0xca, 0x3a,
  0xa7, 0xae, 0xc0, 0x3a, 0x6a, 0x77, 0xb0, 0x3a, 0xcd, 0x91, 0xb8, 0x3a,
  0x75, 0x01, 0xc8, 0x3a, 0x39, 0x5b, 0xab, 0x3a, 0x76, 0xe9, 0xbf, 0x3a,
  0x75, 0xea, 0xb1, 0x3a, 0x02, 0x9c, 0xac, 0x3a, 0x62, 0x60, 0xb5, 0x3a,
  0x6e, 0x46, 0xbb, 0x3a, 0x8c, 0x4e, 0xb0, 0x3a, 0xb1, 0xa6, 0xb1, 0x3a,
  0xb8, 0x3e, 0xb4, 0x3a, 0x04, 0x61, 0xc2, 0x3a, 0x31, 0x00, 0x00, 0x00,
  0x69, 0x64, 0x65, 0x6e, 0x74, 0x69, 0x66, 0x69, 0x65, 0x72, 0x5f, 0x7a,
  0x6f, 0x6e, 0x65, 0x5f, 0x64, 0x65, 0x74, 0x65, 0x63, 0x74, 0x6f, 0x72,
  0x5f, 0x31, 0x2f, 0x63, 0x6f, 0x6e, 0x76, 0x32, 0x64, 0x5f, 0x31, 0x5f,
  0x32, 0x2f, 0x63, 0x6f, 0x6e, 0x76, 0x6f, 0x6c, 0x75, 0x74, 0x69, 0x6f,
  0x6e, 0x00, 0x00, 0x00, 0x04, 0x00, 0x00, 0x00, 0x10, 0x00, 0x00, 0x00,
  0x03, 0x00, 0x00, 0x00, 0x03, 0x00, 0x00, 0x00, 0x08, 0x00, 0x00, 0x00,
  0x12, 0xf9, 0xff, 0xff, 0x00, 0x00, 0x00, 0x01, 0x14, 0x00, 0x00, 0x00,
  0xe4, 0x00, 0x00, 0x00, 0x07, 0x00, 0x00, 0x00, 0x00, 0x00, 0x00, 0x02,
  0x98, 0x01, 0x00, 0x00, 0x4c, 0xf8, 0xff, 0xff, 0x08, 0x00, 0x00, 0x00,
  0x88, 0x00, 0x00, 0x00, 0x10, 0x00, 0x00, 0x00, 0x00, 0x00, 0x00, 0x00,
  0x00, 0x00, 0x00, 0x00, 0x00, 0x00, 0x00, 0x00, 0x00, 0x00, 0x00, 0x00,
  0x00, 0x00, 0x00, 0x00, 0x00, 0x00, 0x00, 0x00, 0x00, 0x00, 0x00, 0x00,
  0x00, 0x00, 0x00, 0x00, 0x00, 0x00, 0x00, 0x00, 0x00, 0x00, 0x00, 0x00,
  0x00, 0x00, 0x00, 0x00, 0x00, 0x00, 0x00, 0x00, 0x00, 0x00, 0x00, 0x00,
  0x00, 0x00, 0x00, 0x00, 0x00, 0x00, 0x00, 0x00, 0x00, 0x00, 0x00, 0x00,
  0x00, 0x00, 0x00, 0x00, 0x00, 0x00, 0x00, 0x00, 0x00, 0x00, 0x00, 0x00,
  0x00, 0x00, 0x00, 0x00, 0x00, 0x00, 0x00, 0x00, 0x00, 0x00, 0x00, 0x00,
  0x00, 0x00, 0x00, 0x00, 0x00, 0x00, 0x00, 0x00, 0x00, 0x00, 0x00, 0x00,
  0x00, 0x00, 0x00, 0x00, 0x00, 0x00, 0x00, 0x00, 0x00, 0x00, 0x00, 0x00,
  0x00, 0x00, 0x00, 0x00, 0x00, 0x00, 0x00, 0x00, 0x00, 0x00, 0x00, 0x00,
  0x00, 0x00, 0x00, 0x00, 0x10, 0x00, 0x00, 0x00, 0x66, 0xf6, 0x9f, 0x36,
  0xfd, 0x86, 0xb0, 0x36, 0x4e, 0x1e, 0xa8, 0x36, 0x48, 0xf8, 0x99, 0x36,
  0x38, 0x0a, 0xa1, 0x36, 0x1a, 0x82, 0xae, 0x36, 0xdd, 0x82, 0x95, 0x36,
  0x40, 0x72, 0xa7, 0x36, 0x06, 0x3c, 0x9b, 0x36, 0xc1, 0x9a, 0x96, 0x36,
  0x02, 0x41, 0x9e, 0x36, 0x8c, 0x66, 0xa3, 0x36, 0xa0, 0xd4, 0x99, 0x36,
  0xe5, 0x00, 0x9b, 0x36, 0x45, 0x44, 0x9d, 0x36, 0x4b, 0x99, 0xa9, 0x36,
  0xb8, 0x00, 0x00, 0x00, 0x69, 0x64, 0x65, 0x6e, 0x74, 0x69, 0x66, 0x69,
  0x65, 0x72, 0x5f, 0x7a, 0x6f, 0x6e, 0x65, 0x5f, 0x64, 0x65, 0x74, 0x65,
  0x63, 0x74, 0x6f, 0x72, 0x5f, 0x31, 0x2f, 0x63, 0x6f, 0x6e, 0x76, 0x32,
  0x64, 0x5f, 0x31, 0x5f, 0x32, 0x2f, 0x52, 0x65, 0x6c, 0x75, 0x3b, 0x69,
  0x64, 0x65, 0x6e, 0x74, 0x69, 0x66, 0x69, 0x65, 0x72, 0x5f, 0x7a, 0x6f,
  0x6e, 0x65, 0x5f, 0x64, 0x65, 0x74, 0x65, 0x63, 0x74, 0x6f, 0x72, 0x5f,
  0x31, 0x2f, 0x63, 0x6f, 0x6e, 0x76, 0x32, 0x64, 0x5f, 0x31, 0x5f, 0x32,
  0x2f, 0x42, 0x69, 0x61, 0x73, 0x41, 0x64, 0x64, 0x3b, 0x69, 0x64, 0x65,
  0x6e, 0x74, 0x69, 0x66, 0x69, 0x65, 0x72, 0x5f, 0x7a, 0x6f, 0x6e, 0x65,
  0x5f, 0x64, 0x65, 0x74, 0x65, 0x63, 0x74, 0x6f, 0x72, 0x5f, 0x31, 0x2f,
  0x63, 0x6f, 0x6e, 0x76, 0x32, 0x64, 0x5f, 0x31, 0x5f, 0x32, 0x2f, 0x63,
  0x6f, 0x6e, 0x76, 0x6f, 0x6c, 0x75, 0x74, 0x69, 0x6f, 0x6e, 0x3b, 0x69,
  0x64, 0x65, 0x6e, 0x74, 0x69, 0x66, 0x69, 0x65, 0x72, 0x5f, 0x7a, 0x6f,
  0x6e, 0x65, 0x5f, 0x64, 0x65, 0x74, 0x65, 0x63, 0x74, 0x6f, 0x72, 0x5f,
  0x31, 0x2f, 0x63, 0x6f, 0x6e, 0x76, 0x32, 0x64, 0x5f, 0x31, 0x5f, 0x32,
  0x2f, 0x53, 0x71, 0x75, 0x65, 0x65, 0x7a, 0x65, 0x00, 0x00, 0x00, 0x00,
  0x01, 0x00, 0x00, 0x00, 0x10, 0x00, 0x00, 0x00, 0xca, 0xfa, 0xff, 0xff,
  0x00, 0x00, 0x00, 0x01, 0x14, 0x00, 0x00, 0x00, 0x48, 0x01, 0x00, 0x00,
  0x06, 0x00, 0x00, 0x00, 0x00, 0x00, 0x00, 0x09, 0x74, 0x01, 0x00, 0x00,
  0x04, 0xfa, 0xff, 0xff, 0x08, 0x00, 0x00, 0x00, 0xcc, 0x00, 0x00, 0x00,
  0x18, 0x00, 0x00, 0x00, 0x00, 0x00, 0x00, 0x00, 0x00, 0x00, 0x00, 0x00,
  0x00, 0x00, 0x00, 0x00, 0x00, 0x00, 0x00, 0x00, 0x00, 0x00, 0x00, 0x00,
  0x00, 0x00, 0x00, 0x00, 0x00, 0x00, 0x00, 0x00, 0x00, 0x00, 0x00, 0x00,
  0x00, 0x00, 0x00, 0x00, 0x00, 0x00, 0x00, 0x00, 0x00, 0x00, 0x00, 0x00,
  0x00, 0x00, 0x00, 0x00, 0x00, 0x00, 0x00, 0x00, 0x00, 0x00, 0x00, 0x00,
  0x00, 0x00, 0x00, 0x00, 0x00, 0x00, 0x00, 0x00, 0x00, 0x00, 0x00, 0x00,
  0x00, 0x00, 0x00, 0x00, 0x00, 0x00, 0x00, 0x00, 0x00, 0x00, 0x00, 0x00,
  0x00, 0x00, 0x00, 0x00, 0x00, 0x00, 0x00, 0x00, 0x00, 0x00, 0x00, 0x00,
  0x00, 0x00, 0x00, 0x00, 0x00, 0x00, 0x00, 0x00, 0x00, 0x00, 0x00, 0x00,
  0x00, 0x00, 0x00, 0x00, 0x00, 0x00, 0x00, 0x00, 0x00, 0x00, 0x00, 0x00,
  0x00, 0x00, 0x00, 0x00, 0x00, 0x00, 0x00, 0x00, 0x00, 0x00, 0x00, 0x00,
  0x00, 0x00, 0x00, 0x00, 0x00, 0x00, 0x00, 0x00, 0x00, 0x00, 0x00, 0x00,
  0x00, 0x00, 0x00, 0x00, 0x00, 0x00, 0x00, 0x00, 0x00, 0x00, 0x00, 0x00,
  0x00, 0x00, 0x00, 0x00, 0x00, 0x00, 0x00, 0x00, 0x00, 0x00, 0x00, 0x00,
  0x00, 0x00, 0x00, 0x00, 0x00, 0x00, 0x00, 0x00, 0x00, 0x00, 0x00, 0x00,
  0x00, 0x00, 0x00, 0x00, 0x00, 0x00, 0x00, 0x00, 0x00, 0x00, 0x00, 0x00,
  0x00, 0x00, 0x00, 0x00, 0x00, 0x00, 0x00, 0x00, 0x18, 0x00, 0x00, 0x00,
  0xaf, 0xeb, 0xab, 0x3a, 0xc2, 0xd6, 0x93, 0x3a, 0x03, 0x36, 0xa9, 0x3a,
  0xb7, 0xcf, 0x9e, 0x3a, 0x93, 0xfd, 0xaf, 0x3a, 0x60, 0x76, 0x86, 0x3a,
  0xd9, 0xfc, 0xb2, 0x3a, 0x5d, 0x61, 0xb7, 0x3a, 0xb5, 0xe6, 0xb8, 0x3a,
  0x4c, 0x22, 0xc4, 0x3a, 0x16, 0x23, 0xa5, 0x3a, 0x22, 0x51, 0x8d, 0x3a,
  0x56, 0x0f, 0xb6, 0x3a, 0x3a, 0x05, 0xb6, 0x3a, 0x99, 0xc5, 0x91, 0x3a,
  0xb6, 0xfa, 0xaa, 0x3a, 0xda, 0x20, 0x86, 0x3a, 0x38, 0xe1, 0x8c, 0x3a,
  0x6c, 0xdf, 0xa7, 0x3a, 0x8d, 0x22, 0xa6, 0x3a, 0x3d, 0xee, 0xac, 0x3a,
  0x8a, 0xb5, 0xa7, 0x3a, 0x55, 0xcb, 0xbb, 0x3a, 0x50, 0x43, 0xb6, 0x3a,
  0x31, 0x00, 0x00, 0x00, 0x69, 0x64, 0x65, 0x6e, 0x74, 0x69, 0x66, 0x69,
  0x65, 0x72, 0x5f, 0x7a, 0x6f, 0x6e, 0x65, 0x5f, 0x64, 0x65, 0x74, 0x65,
  0x63, 0x74, 0x6f, 0x72, 0x5f, 0x31, 0x2f, 0x63, 0x6f, 0x6e, 0x76, 0x32,
  0x64, 0x5f, 0x32, 0x5f, 0x31, 0x2f, 0x63, 0x6f, 0x6e, 0x76, 0x6f, 0x6c,
  0x75, 0x74, 0x69, 0x6f, 0x6e, 0x00, 0x00, 0x00, 0x04, 0x00, 0x00, 0x00,
  0x18, 0x00, 0x00, 0x00, 0x03, 0x00, 0x00, 0x00, 0x03, 0x00, 0x00, 0x00,
  0x10, 0x00, 0x00, 0x00, 0x6a, 0xfc, 0xff, 0xff, 0x00, 0x00, 0x00, 0x01,
  0x14, 0x00, 0x00, 0x00, 0x44, 0x01, 0x00, 0x00, 0x05, 0x00, 0x00, 0x00,
  0x00, 0x00, 0x00, 0x02, 0xf8, 0x01, 0x00, 0x00, 0xa4, 0xfb, 0xff, 0xff,
  0x08, 0x00, 0x00, 0x00, 0xc8, 0x00, 0x00, 0x00, 0x18, 0x00, 0x00, 0x00,
  0x00, 0x00, 0x00, 0x00, 0x00, 0x00, 0x00, 0x00, 0x00, 0x00, 0x00, 0x00,
  0x00, 0x00, 0x00, 0x00, 0x00, 0x00, 0x00, 0x00, 0x00, 0x00, 0x00, 0x00,
  0x00, 0x00, 0x00, 0x00, 0x00, 0x00, 0x00, 0x00, 0x00, 0x00, 0x00, 0x00,
  0x00, 0x00, 0x00, 0x00, 0x00, 0x00, 0x00, 0x00, 0x00, 0x00, 0x00, 0x00,
  0x00, 0x00, 0x00, 0x00, 0x00, 0x00, 0x00, 0x00, 0x00, 0x00, 0x00, 0x00,
  0x00, 0x00, 0x00, 0x00, 0x00, 0x00, 0x00, 0x00, 0x00, 0x00, 0x00, 0x00,
  0x00, 0x00, 0x00, 0x00, 0x00, 0x00, 0x00, 0x00, 0x00, 0x00, 0x00, 0x00,
  0x00, 0x00, 0x00, 0x00, 0x00, 0x00, 0x00, 0x00, 0x00, 0x00, 0x00, 0x00,
  0x00, 0x00, 0x00, 0x00, 0x00, 0x00, 0x00, 0x00, 0x00, 0x00, 0x00, 0x00,
  0x00, 0x00, 0x00, 0x00, 0x00, 0x00, 0x00, 0x00, 0x00, 0x00, 0x00, 0x00,
  0x00, 0x00, 0x00, 0x00, 0x00, 0x00, 0x00, 0x00, 0x00, 0x00, 0x00, 0x00,
  0x00, 0x00, 0x00, 0x00, 0x00, 0x00, 0x00, 0x00, 0x00, 0x00, 0x00, 0x00,
  0x00, 0x00, 0x00, 0x00, 0x00, 0x00, 0x00, 0x00, 0x00, 0x00, 0x00, 0x00,
  0x00, 0x00, 0x00, 0x00, 0x00, 0x00, 0x00, 0x00, 0x00, 0x00, 0x00, 0x00,
  0x00, 0x00, 0x00, 0x00, 0x00, 0x00, 0x00, 0x00, 0x00, 0x00, 0x00, 0x00,
  0x00, 0x00, 0x00, 0x00, 0x00, 0x00, 0x00, 0x00, 0x00, 0x00, 0x00, 0x00,
  0x18, 0x00, 0x00, 0x00, 0xa8, 0x32, 0x13, 0x36, 0x89, 0x28, 0xfd, 0x35,
  0xbc, 0xe0, 0x10, 0x36, 0x49, 0xf9, 0x07, 0x36, 0xb8, 0xae, 0x16, 0x36,
  0xa5, 0x40, 0xe6, 0x35, 0xa8, 0x3f, 0x19, 0x36, 0x76, 0x02, 0x1d, 0x36,
  0xd1, 0x4f, 0x1e, 0x36, 0xe3, 0xed, 0x27, 0x36, 0xc9, 0x63, 0x0d, 0x36,
  0x7b, 0xfd, 0xf1, 0x35, 0x0b, 0xe1, 0x1b, 0x36, 0x64, 0xd8, 0x1b, 0x36,
  0x67, 0x9e, 0xf9, 0x35, 0x56, 0x64, 0x12, 0x36, 0x32, 0xae, 0xe5, 0x35,
  0xd7, 0x3d, 0xf1, 0x35, 0x69, 0xbb, 0x0f, 0x36, 0x84, 0x3e, 0x0e, 0x36,
  0x08, 0x10, 0x14, 0x36, 0x8d, 0x97, 0x0f, 0x36, 0xf0, 0xc9, 0x20, 0x36,
  0x8c, 0x0d, 0x1c, 0x36, 0xb8, 0x00, 0x00, 0x00, 0x69, 0x64, 0x65, 0x6e,
  0x74, 0x69, 0x66, 0x69, 0x65, 0x72, 0x5f, 0x7a, 0x6f, 0x6e, 0x65, 0x5f,
  0x64, 0x65, 0x74, 0x65, 0x63, 0x74, 0x6f, 0x72, 0x5f, 0x31, 0x2f, 0x63,
  0x6f, 0x6e, 0x76, 0x32, 0x64, 0x5f, 0x32, 0x5f, 0x31, 0x2f, 0x52, 0x65,
  0x6c, 0x75, 0x3b, 0x69, 0x64, 0x65, 0x6e, 0x74, 0x69, 0x66, 0x69, 0x65,
  0x72, 0x5f, 0x7a, 0x6f, 0x6e, 0x65, 0x5f, 0x64, 0x65, 0x74, 0x65, 0x63,
  0x74, 0x6f, 0x72, 0x5f, 0x31, 0x2f, 0x63, 0x6f, 0x6e, 0x76, 0x32, 0x64,
  0x5f, 0x32, 0x5f, 0x31, 0x2f, 0x42, 0x69, 0x61, 0x73, 0x41, 0x64, 0x64,
  0x3b, 0x69, 0x64, 0x65, 0x6e, 0x74, 0x69, 0x66, 0x69, 0x65, 0x72, 0x5f,
  0x7a, 0x6f, 0x6e, 0x65, 0x5f, 0x64, 0x65, 0x74, 0x65, 0x63, 0x74, 0x6f,
  0x72, 0x5f, 0x31, 0x2f, 0x63, 0x6f, 0x6e, 0x76, 0x32, 0x64, 0x5f, 0x32,
  0x5f, 0x31, 0x2f, 0x63, 0x6f, 0x6e, 0x76, 0x6f, 0x6c, 0x75, 0x74, 0x69,
  0x6f, 0x6e, 0x3b, 0x69, 0x64, 0x65, 0x6e, 0x74, 0x69, 0x66, 0x69, 0x65,
  0x72, 0x5f, 0x7a, 0x6f, 0x6e, 0x65, 0x5f, 0x64, 0x65, 0x74, 0x65, 0x63,
  0x74, 0x6f, 0x72, 0x5f, 0x31, 0x2f, 0x63, 0x6f, 0x6e, 0x76, 0x32, 0x64,
  0x5f, 0x32, 0x5f, 0x31, 0x2f, 0x53, 0x71, 0x75, 0x65, 0x65, 0x7a, 0x65,
  0x00, 0x00, 0x00, 0x00, 0x01, 0x00, 0x00, 0x00, 0x18, 0x00, 0x00, 0x00,
  0x82, 0xfe, 0xff, 0xff, 0x00, 0x00, 0x00, 0x01, 0x14, 0x00, 0x00, 0x00,
  0x40, 0x00, 0x00, 0x00, 0x04, 0x00, 0x00, 0x00, 0x00, 0x00, 0x00, 0x09,
  0x6c, 0x00, 0x00, 0x00, 0xbc, 0xfd, 0xff, 0xff, 0x08, 0x00, 0x00, 0x00,
  0x1c, 0x00, 0x00, 0x00, 0x02, 0x00, 0x00, 0x00, 0x00, 0x00, 0x00, 0x00,
  0x00, 0x00, 0x00, 0x00, 0x00, 0x00, 0x00, 0x00, 0x00, 0x00, 0x00, 0x00,
  0x00, 0x00, 0x00, 0x00, 0x02, 0x00, 0x00, 0x00, 0x60, 0xd4, 0x80, 0x3b,
  0xea, 0x0d, 0x70, 0x3b, 0x31, 0x00, 0x00, 0x00, 0x69, 0x64, 0x65, 0x6e,
  0x74, 0x69, 0x66, 0x69, 0x65, 0x72, 0x5f, 0x7a, 0x6f, 0x6e, 0x65, 0x5f,
  0x64, 0x65, 0x74, 0x65, 0x63, 0x74, 0x6f, 0x72, 0x5f, 0x31, 0x2f, 0x63,
  0x6f, 0x6e, 0x76, 0x32, 0x64, 0x5f, 0x33, 0x5f, 0x31, 0x2f, 0x63, 0x6f,
  0x6e, 0x76, 0x6f, 0x6c, 0x75, 0x74, 0x69, 0x6f, 0x6e, 0x00, 0x00, 0x00,
  0x04, 0x00, 0x00, 0x00, 0x02, 0x00, 0x00, 0x00, 0x01, 0x00, 0x00, 0x00,
  0x01, 0x00, 0x00, 0x00, 0x18, 0x00, 0x00, 0x00, 0x1a, 0xff, 0xff, 0xff,
  0x00, 0x00, 0x00, 0x01, 0x14, 0x00, 0x00, 0x00, 0x3c, 0x00, 0x00, 0x00,
  0x03, 0x00, 0x00, 0x00, 0x00, 0x00, 0x00, 0x02, 0xc4, 0x00, 0x00, 0x00,
  0x54, 0xfe, 0xff, 0xff, 0x08, 0x00, 0x00, 0x00, 0x18, 0x00, 0x00, 0x00,
  0x02, 0x00, 0x00, 0x00, 0x00, 0x00, 0x00, 0x00, 0x00, 0x00, 0x00, 0x00,
  0x00, 0x00, 0x00, 0x00, 0x00, 0x00, 0x00, 0x00, 0x02, 0x00, 0x00, 0x00,
  0xa1, 0x3a, 0xd1, 0x36, 0xe8, 0xee, 0xc2, 0x36, 0x8d, 0x00, 0x00, 0x00,
  0x69, 0x64, 0x65, 0x6e, 0x74, 0x69, 0x66, 0x69, 0x65, 0x72, 0x5f, 0x7a,
  0x6f, 0x6e, 0x65, 0x5f, 0x64, 0x65, 0x74, 0x65, 0x63, 0x74, 0x6f, 0x72,
  0x5f, 0x31, 0x2f, 0x63, 0x6f, 0x6e, 0x76, 0x32, 0x64, 0x5f, 0x33, 0x5f,
  0x31, 0x2f, 0x42, 0x69, 0x61, 0x73, 0x41, 0x64, 0x64, 0x3b, 0x69, 0x64,
  0x65, 0x6e, 0x74, 0x69, 0x66, 0x69, 0x65, 0x72, 0x5f, 0x7a, 0x6f, 0x6e,
  0x65, 0x5f, 0x64, 0x65, 0x74, 0x65, 0x63, 0x74, 0x6f, 0x72, 0x5f, 0x31,
  0x2f, 0x63, 0x6f, 0x6e, 0x76, 0x32, 0x64, 0x5f, 0x33, 0x5f, 0x31, 0x2f,
  0x63, 0x6f, 0x6e, 0x76, 0x6f, 0x6c, 0x75, 0x74, 0x69, 0x6f, 0x6e, 0x3b,
  0x69, 0x64, 0x65, 0x6e, 0x74, 0x69, 0x66, 0x69, 0x65, 0x72, 0x5f, 0x7a,
  0x6f, 0x6e, 0x65, 0x5f, 0x64, 0x65, 0x74, 0x65, 0x63, 0x74, 0x6f, 0x72,
  0x5f, 0x31, 0x2f, 0x63, 0x6f, 0x6e, 0x76, 0x32, 0x64, 0x5f, 0x33, 0x5f,
  0x31, 0x2f, 0x53, 0x71, 0x75, 0x65, 0x65, 0x7a, 0x65, 0x00, 0x00, 0x00,
  0x01, 0x00, 0x00, 0x00, 0x02, 0x00, 0x00, 0x00, 0x00, 0x00, 0x16, 0x00,
  0x1c, 0x00, 0x18, 0x00, 0x17, 0x00, 0x10, 0x00, 0x0c, 0x00, 0x08, 0x00,
  0x00, 0x00, 0x00, 0x00, 0x00, 0x00, 0x07, 0x00, 0x16, 0x00, 0x00, 0x00,
  0x00, 0x00, 0x00, 0x01, 0x18, 0x00, 0x00, 0x00, 0x18, 0x00, 0x00, 0x00,
  0x02, 0x00, 0x00, 0x00, 0x00, 0x00, 0x00, 0x02, 0x60, 0x00, 0x00, 0x00,
  0x04, 0x00, 0x04, 0x00, 0x04, 0x00, 0x00, 0x00, 0x4c, 0x00, 0x00, 0x00,
  0x69, 0x64, 0x65, 0x6e, 0x74, 0x69, 0x66, 0x69, 0x65, 0x72, 0x5f, 0x7a,
  0x6f, 0x6e, 0x65, 0x5f, 0x64, 0x65, 0x74, 0x65, 0x63, 0x74, 0x6f, 0x72,
  0x5f, 0x31, 0x2f, 0x67, 0x6c, 0x6f, 0x62, 0x61, 0x6c, 0x5f, 0x61, 0x76,
  0x65, 0x72, 0x61, 0x67, 0x65, 0x5f, 0x70, 0x6f, 0x6f, 0x6c, 0x69, 0x6e,
  0x67, 0x32, 0x64, 0x5f, 0x31, 0x2f, 0x4d, 0x65, 0x61, 0x6e, 0x2f, 0x72,
  0x65, 0x64, 0x75, 0x63, 0x74, 0x69, 0x6f, 0x6e, 0x5f, 0x69, 0x6e, 0x64,
  0x69, 0x63, 0x65, 0x73, 0x00, 0x00, 0x00, 0x00, 0x01, 0x00, 0x00, 0x00,
  0x02, 0x00, 0x00, 0x00, 0x00, 0x00, 0x16, 0x00, 0x20, 0x00, 0x1c, 0x00,
  0x1b, 0x00, 0x14, 0x00, 0x10, 0x00, 0x0c, 0x00, 0x00, 0x00, 0x00, 0x00,
  0x08, 0x00, 0x07, 0x00, 0x16, 0x00, 0x00, 0x00, 0x00, 0x00, 0x00, 0x01,
  0x18, 0x00, 0x00, 0x00, 0x34, 0x00, 0x00, 0x00, 0x50, 0x00, 0x00, 0x00,
  0x01, 0x00, 0x00, 0x00, 0x00, 0x00, 0x00, 0x09, 0x60, 0x00, 0x00, 0x00,
  0x04, 0x00, 0x00, 0x00, 0xff, 0xff, 0xff, 0xff, 0x60, 0x00, 0x00, 0x00,
  0x60, 0x00, 0x00, 0x00, 0x01, 0x00, 0x00, 0x00, 0x0c, 0x00, 0x0c, 0x00,
  0x00, 0x00, 0x00, 0x00, 0x08, 0x00, 0x04, 0x00, 0x0c, 0x00, 0x00, 0x00,
  0x08, 0x00, 0x00, 0x00, 0x10, 0x00, 0x00, 0x00, 0x01, 0x00, 0x00, 0x00,
  0x80, 0xff, 0xff, 0xff, 0xff, 0xff, 0xff, 0xff, 0x01, 0x00, 0x00, 0x00,
  0x81, 0x80, 0x80, 0x3b, 0x17, 0x00, 0x00, 0x00, 0x73, 0x65, 0x72, 0x76,
  0x69, 0x6e, 0x67, 0x5f, 0x64, 0x65, 0x66, 0x61, 0x75, 0x6c, 0x74, 0x5f,
  0x69, 0x6d, 0x61, 0x67, 0x65, 0x3a, 0x30, 0x00, 0x04, 0x00, 0x00, 0x00,
  0x01, 0x00, 0x00, 0x00, 0x60, 0x00, 0x00, 0x00, 0x60, 0x00, 0x00, 0x00,
  0x01, 0x00, 0x00, 0x00, 0x04, 0x00, 0x00, 0x00, 0x4c, 0x00, 0x00, 0x00,
  0x2c, 0x00, 0x00, 0x00, 0x18, 0x00, 0x00, 0x00, 0x04, 0x00, 0x00, 0x00,
  0xd0, 0xff, 0xff, 0xff, 0x19, 0x00, 0x00, 0x00, 0x02, 0x00, 0x00, 0x00,
  0x00, 0x00, 0x00, 0x19, 0xe0, 0xff, 0xff, 0xff, 0x28, 0x00, 0x00, 0x00,
  0x02, 0x00, 0x00, 0x00, 0x00, 0x00, 0x00, 0x28, 0xf0, 0xff, 0xff, 0xff,
  0x01, 0x00, 0x00, 0x00, 0x02, 0x00, 0x00, 0x00, 0x00, 0x00, 0x00, 0x01,
  0x0c, 0x00, 0x10, 0x00, 0x0f, 0x00, 0x00, 0x00, 0x08, 0x00, 0x04, 0x00,
  0x0c, 0x00, 0x00, 0x00, 0x03, 0x00, 0x00, 0x00, 0x03, 0x00, 0x00, 0x00,
  0x00, 0x00, 0x00, 0x03,
};
const int g_identifier_detect_model_data_len = 11416;
